{
  "version": "1.0",
  "truncation": null,
  "padding": null,
  "added_tokens": [
    {
      "id": 0,
      "content": "<unk>",
      "single_word": false,
      "lstrip": false,
      "rstrip": false,
      "normalized": false,
      "special": true
    },
    {
      "id": 1,
      "content": "<s>",
      "single_word": false,
      "lstrip": false,
      "rstrip": false,
      "normalized": false,
      "special": true
    },
    {
      "id": 2,
      "content": "</s>",
      "single_word": false,
      "lstrip": false,
      "rstrip": false,
      "normalized": false,
      "special": true
    },
    {
      "id": 3,
      "content": "<pad>",
      "single_word": false,
      "lstrip": false,
      "rstrip": false,
      "normalized": false,
      "special": true
    },
    {
      "id": 4,
      "content": "<extra_id_0>",
      "single_word": false,
      "lstrip": false,
      "rstrip": false,
      "normalized": false,
      "special": true
    },
    {
      "id": 5,
      "content": "<extra_id_1>",
      "single_word": false,
      "lstrip": false,
      "rstrip": false,
      "normalized": false,
      "special": true
    },
    {
      "id": 6,
      "content": "<extra_id_2>",
      "single_word": false,
      "lstrip": false,
      "rstrip": false,
      "normalized": false,
      "special": true
    },
    {
      "id": 7,
      "content": "<extra_id_3>",
      "single_word": false,
      "lstrip": false,
      "rstrip": false,
      "normalized": false,
      "special": true
    },
    {
      "id": 8,
      "content": "<extra_id_4>",
      "single_word": false,
      "lstrip": false,
      "rstrip": false,
      "normalized": false,
      "special": true
    },
    {
      "id": 9,
      "content": "<extra_id_5>",
      "single_word": false,
      "lstrip": false,
      "rstrip": false,
      "normalized": false,
      "special": true
    },
    {
      "id": 10,
      "content": "<extra_id_6>",
      "single_word": false,
      "lstrip": false,
      "rstrip": false,
      "normalized": false,
      "special": true
    },
    {
      "id": 11,
      "content": "<extra_id_7>",
      "single_word": false,
      "lstrip": false,
      "rstrip": false,
      "normalized": false,
      "special": true
    },
    {
      "id": 12,
      "content": "<extra_id_8>",
      "single_word": false,
      "lstrip": false,
      "rstrip": false,
      "normalized": false,
      "special": true
    },
    {
      "id": 13,
      "content": "<extra_id_9>",
      "single_word": false,
      "lstrip": false,
      "rstrip": false,
      "normalized": false,
      "special": true
    },
    {
      "id": 14,
      "content": "<extra_id_10>",
      "single_word": false,
      "lstrip": false,
      "rstrip": false,
      "normalized": false,
      "special": true
    },
    {
      "id": 15,
      "content": "<extra_id_11>",
      "single_word": false,
      "lstrip": false,
      "rstrip": false,
      "normalized": false,
      "special": true
    },
    {
      "id": 16,
      "content": "<extra_id_12>",
      "single_word": false,
      "lstrip": false,
      "rstrip": false,
      "normalized": false,
      "special": true
    },
    {
      "id": 17,
      "content": "<extra_id_13>",
      "single_word": false,
      "lstrip": false,
      "rstrip": false,
      "normalized": false,
      "special": true
    },
    {
      "id": 18,
      "content": "<extra_id_14>",
      "single_word": false,
      "lstrip": false,
      "rstrip": false,
      "normalized": false,
      "special": true
    },
    {
      "id": 19,
      "content": "<extra_id_15>",
      "single_word": false,
      "lstrip": false,
      "rstrip": false,
      "normalized": false,
      "special": true
    },
    {
      "id": 20,
      "content": "<extra_id_16>",
      "single_word": false,
      "lstrip": false,
      "rstrip": false,
      "normalized": false,
      "special": true
    },
    {
      "id": 21,
      "content": "<extra_id_17>",
      "single_word": false,
      "lstrip": false,
      "rstrip": false,
      "normalized": false,
      "special": true
    },
    {
      "id": 22,
      "content": "<extra_id_18>",
      "single_word": false,
      "lstrip": false,
      "rstrip": false,
      "normalized": false,
      "special": true
    },
    {
      "id": 23,
      "content": "<extra_id_19>",
      "single_word": false,
      "lstrip": false,
      "rstrip": false,
      "normalized": false,
      "special": true
    },
    {
      "id": 24,
      "content": "<extra_id_20>",
      "single_word": false,
      "lstrip": false,
      "rstrip": false,
      "normalized": false,
      "special": true
    },
    {
      "id": 25,
      "content": "<extra_id_21>",
      "single_word": false,
      "lstrip": false,
      "rstrip": false,
      "normalized": false,
      "special": true
    },
    {
      "id": 26,
      "content": "<extra_id_22>",
      "single_word": false,
      "lstrip": false,
      "rstrip": false,
      "normalized": false,
      "special": true
    },
    {
      "id": 27,
      "content": "<extra_id_23>",
      "single_word": false,
      "lstrip": false,
      "rstrip": false,
      "normalized": false,
      "special": true
    },
    {
      "id": 28,
      "content": "<extra_id_24>",
      "single_word": false,
      "lstrip": false,
      "rstrip": false,
      "normalized": false,
      "special": true
    },
    {
      "id": 29,
      "content": "<extra_id_25>",
      "single_word": false,
      "lstrip": false,
      "rstrip": false,
      "normalized": false,
      "special": true
    },
    {
      "id": 30,
      "content": "<extra_id_26>",
      "single_word": false,
      "lstrip": false,
      "rstrip": false,
      "normalized": false,
      "special": true
    },
    {
      "id": 31,
      "content": "<extra_id_27>",
      "single_word": false,
      "lstrip": false,
      "rstrip": false,
      "normalized": false,
      "special": true
    },
    {
      "id": 32,
      "content": "<extra_id_28>",
      "single_word": false,
      "lstrip": false,
      "rstrip": false,
      "normalized": false,
      "special": true
    },
    {
      "id": 33,
      "content": "<extra_id_29>",
      "single_word": false,
      "lstrip": false,
      "rstrip": false,
      "normalized": false,
      "special": true
    },
    {
      "id": 34,
      "content": "<extra_id_30>",
      "single_word": false,
      "lstrip": false,
      "rstrip": false,
      "normalized": false,
      "special": true
    },
    {
      "id": 35,
      "content": "<extra_id_31>",
      "single_word": false,
      "lstrip": false,
      "rstrip": false,
      "normalized": false,
      "special": true
    },
    {
      "id": 36,
      "content": "<extra_id_32>",
      "single_word": false,
      "lstrip": false,
      "rstrip": false,
      "normalized": false,
      "special": true
    },
    {
      "id": 37,
      "content": "<extra_id_33>",
      "single_word": false,
      "lstrip": false,
      "rstrip": false,
      "normalized": false,
      "special": true
    },
    {
      "id": 38,
      "content": "<extra_id_34>",
      "single_word": false,
      "lstrip": false,
      "rstrip": false,
      "normalized": false,
      "special": true
    },
    {
      "id": 39,
      "content": "<extra_id_35>",
      "single_word": false,
      "lstrip": false,
      "rstrip": false,
      "normalized": false,
      "special": true
    },
    {
      "id": 40,
      "content": "<extra_id_36>",
      "single_word": false,
      "lstrip": false,
      "rstrip": false,
      "normalized": false,
      "special": true
    },
    {
      "id": 41,
      "content": "<extra_id_37>",
      "single_word": false,
      "lstrip": false,
      "rstrip": false,
      "normalized": false,
      "special": true
    },
    {
      "id": 42,
      "content": "<extra_id_38>",
      "single_word": false,
      "lstrip": false,
      "rstrip": false,
      "normalized": false,
      "special": true
    },
    {
      "id": 43,
      "content": "<extra_id_39>",
      "single_word": false,
      "lstrip": false,
      "rstrip": false,
      "normalized": false,
      "special": true
    },
    {
      "id": 44,
      "content": "<extra_id_40>",
      "single_word": false,
      "lstrip": false,
      "rstrip": false,
      "normalized": false,
      "special": true
    },
    {
      "id": 45,
      "content": "<extra_id_41>",
      "single_word": false,
      "lstrip": false,
      "rstrip": false,
      "normalized": false,
      "special": true
    },
    {
      "id": 46,
      "content": "<extra_id_42>",
      "single_word": false,
      "lstrip": false,
      "rstrip": false,
      "normalized": false,
      "special": true
    },
    {
      "id": 47,
      "content": "<extra_id_43>",
      "single_word": false,
      "lstrip": false,
      "rstrip": false,
      "normalized": false,
      "special": true
    },
    {
      "id": 48,
      "content": "<extra_id_44>",
      "single_word": false,
      "lstrip": false,
      "rstrip": false,
      "normalized": false,
      "special": true
    },
    {
      "id": 49,
      "content": "<extra_id_45>",
      "single_word": false,
      "lstrip": false,
      "rstrip": false,
      "normalized": false,
      "special": true
    },
    {
      "id": 50,
      "content": "<extra_id_46>",
      "single_word": false,
      "lstrip": false,
      "rstrip": false,
      "normalized": false,
      "special": true
    },
    {
      "id": 51,
      "content": "<extra_id_47>",
      "single_word": false,
      "lstrip": false,
      "rstrip": false,
      "normalized": false,
      "special": true
    },
    {
      "id": 52,
      "content": "<extra_id_48>",
      "single_word": false,
      "lstrip": false,
      "rstrip": false,
      "normalized": false,
      "special": true
    },
    {
      "id": 53,
      "content": "<extra_id_49>",
      "single_word": false,
      "lstrip": false,
      "rstrip": false,
      "normalized": false,
      "special": true
    },
    {
      "id": 54,
      "content": "<extra_id_50>",
      "single_word": false,
      "lstrip": false,
      "rstrip": false,
      "normalized": false,
      "special": true
    },
    {
      "id": 55,
      "content": "<extra_id_51>",
      "single_word": false,
      "lstrip": false,
      "rstrip": false,
      "normalized": false,
      "special": true
    },
    {
      "id": 56,
      "content": "<extra_id_52>",
      "single_word": false,
      "lstrip": false,
      "rstrip": false,
      "normalized": false,
      "special": true
    },
    {
      "id": 57,
      "content": "<extra_id_53>",
      "single_word": false,
      "lstrip": false,
      "rstrip": false,
      "normalized": false,
      "special": true
    },
    {
      "id": 58,
      "content": "<extra_id_54>",
      "single_word": false,
      "lstrip": false,
      "rstrip": false,
      "normalized": false,
      "special": true
    },
    {
      "id": 59,
      "content": "<extra_id_55>",
      "single_word": false,
      "lstrip": false,
      "rstrip": false,
      "normalized": false,
      "special": true
    },
    {
      "id": 60,
      "content": "<extra_id_56>",
      "single_word": false,
      "lstrip": false,
      "rstrip": false,
      "normalized": false,
      "special": true
    },
    {
      "id": 61,
      "content": "<extra_id_57>",
      "single_word": false,
      "lstrip": false,
      "rstrip": false,
      "normalized": false,
      "special": true
    },
    {
      "id": 62,
      "content": "<extra_id_58>",
      "single_word": false,
      "lstrip": false,
      "rstrip": false,
      "normalized": false,
      "special": true
    },
    {
      "id": 63,
      "content": "<extra_id_59>",
      "single_word": false,
      "lstrip": false,
      "rstrip": false,
      "normalized": false,
      "special": true
    },
    {
      "id": 64,
      "content": "<extra_id_60>",
      "single_word": false,
      "lstrip": false,
      "rstrip": false,
      "normalized": false,
      "special": true
    },
    {
      "id": 65,
      "content": "<extra_id_61>",
      "single_word": false,
      "lstrip": false,
      "rstrip": false,
      "normalized": false,
      "special": true
    },
    {
      "id": 66,
      "content": "<extra_id_62>",
      "single_word": false,
      "lstrip": false,
      "rstrip": false,
      "normalized": false,
      "special": true
    },
    {
      "id": 67,
      "content": "<extra_id_63>",
      "single_word": false,
      "lstrip": false,
      "rstrip": false,
      "normalized": false,
      "special": true
    },
    {
      "id": 68,
      "content": "<extra_id_64>",
      "single_word": false,
      "lstrip": false,
      "rstrip": false,
      "normalized": false,
      "special": true
    },
    {
      "id": 69,
      "content": "<extra_id_65>",
      "single_word": false,
      "lstrip": false,
      "rstrip": false,
      "normalized": false,
      "special": true
    },
    {
      "id": 70,
      "content": "<extra_id_66>",
      "single_word": false,
      "lstrip": false,
      "rstrip": false,
      "normalized": false,
      "special": true
    },
    {
      "id": 71,
      "content": "<extra_id_67>",
      "single_word": false,
      "lstrip": false,
      "rstrip": false,
      "normalized": false,
      "special": true
    },
    {
      "id": 72,
      "content": "<extra_id_68>",
      "single_word": false,
      "lstrip": false,
      "rstrip": false,
      "normalized": false,
      "special": true
    },
    {
      "id": 73,
      "content": "<extra_id_69>",
      "single_word": false,
      "lstrip": false,
      "rstrip": false,
      "normalized": false,
      "special": true
    },
    {
      "id": 74,
      "content": "<extra_id_70>",
      "single_word": false,
      "lstrip": false,
      "rstrip": false,
      "normalized": false,
      "special": true
    },
    {
      "id": 75,
      "content": "<extra_id_71>",
      "single_word": false,
      "lstrip": false,
      "rstrip": false,
      "normalized": false,
      "special": true
    },
    {
      "id": 76,
      "content": "<extra_id_72>",
      "single_word": false,
      "lstrip": false,
      "rstrip": false,
      "normalized": false,
      "special": true
    },
    {
      "id": 77,
      "content": "<extra_id_73>",
      "single_word": false,
      "lstrip": false,
      "rstrip": false,
      "normalized": false,
      "special": true
    },
    {
      "id": 78,
      "content": "<extra_id_74>",
      "single_word": false,
      "lstrip": false,
      "rstrip": false,
      "normalized": false,
      "special": true
    },
    {
      "id": 79,
      "content": "<extra_id_75>",
      "single_word": false,
      "lstrip": false,
      "rstrip": false,
      "normalized": false,
      "special": true
    },
    {
      "id": 80,
      "content": "<extra_id_76>",
      "single_word": false,
      "lstrip": false,
      "rstrip": false,
      "normalized": false,
      "special": true
    },
    {
      "id": 81,
      "content": "<extra_id_77>",
      "single_word": false,
      "lstrip": false,
      "rstrip": false,
      "normalized": false,
      "special": true
    },
    {
      "id": 82,
      "content": "<extra_id_78>",
      "single_word": false,
      "lstrip": false,
      "rstrip": false,
      "normalized": false,
      "special": true
    },
    {
      "id": 83,
      "content": "<extra_id_79>",
      "single_word": false,
      "lstrip": false,
      "rstrip": false,
      "normalized": false,
      "special": true
    },
    {
      "id": 84,
      "content": "<extra_id_80>",
      "single_word": false,
      "lstrip": false,
      "rstrip": false,
      "normalized": false,
      "special": true
    },
    {
      "id": 85,
      "content": "<extra_id_81>",
      "single_word": false,
      "lstrip": false,
      "rstrip": false,
      "normalized": false,
      "special": true
    },
    {
      "id": 86,
      "content": "<extra_id_82>",
      "single_word": false,
      "lstrip": false,
      "rstrip": false,
      "normalized": false,
      "special": true
    },
    {
      "id": 87,
      "content": "<extra_id_83>",
      "single_word": false,
      "lstrip": false,
      "rstrip": false,
      "normalized": false,
      "special": true
    },
    {
      "id": 88,
      "content": "<extra_id_84>",
      "single_word": false,
      "lstrip": false,
      "rstrip": false,
      "normalized": false,
      "special": true
    },
    {
      "id": 89,
      "content": "<extra_id_85>",
      "single_word": false,
      "lstrip": false,
      "rstrip": false,
      "normalized": false,
      "special": true
    },
    {
      "id": 90,
      "content": "<extra_id_86>",
      "single_word": false,
      "lstrip": false,
      "rstrip": false,
      "normalized": false,
      "special": true
    },
    {
      "id": 91,
      "content": "<extra_id_87>",
      "single_word": false,
      "lstrip": false,
      "rstrip": false,
      "normalized": false,
      "special": true
    },
    {
      "id": 92,
      "content": "<extra_id_88>",
      "single_word": false,
      "lstrip": false,
      "rstrip": false,
      "normalized": false,
      "special": true
    },
    {
      "id": 93,
      "content": "<extra_id_89>",
      "single_word": false,
      "lstrip": false,
      "rstrip": false,
      "normalized": false,
      "special": true
    },
    {
      "id": 94,
      "content": "<extra_id_90>",
      "single_word": false,
      "lstrip": false,
      "rstrip": false,
      "normalized": false,
      "special": true
    },
    {
      "id": 95,
      "content": "<extra_id_91>",
      "single_word": false,
      "lstrip": false,
      "rstrip": false,
      "normalized": false,
      "special": true
    },
    {
      "id": 96,
      "content": "<extra_id_92>",
      "single_word": false,
      "lstrip": false,
      "rstrip": false,
      "normalized": false,
      "special": true
    },
    {
      "id": 97,
      "content": "<extra_id_93>",
      "single_word": false,
      "lstrip": false,
      "rstrip": false,
      "normalized": false,
      "special": true
    },
    {
      "id": 98,
      "content": "<extra_id_94>",
      "single_word": false,
      "lstrip": false,
      "rstrip": false,
      "normalized": false,
      "special": true
    },
    {
      "id": 99,
      "content": "<extra_id_95>",
      "single_word": false,
      "lstrip": false,
      "rstrip": false,
      "normalized": false,
      "special": true
    },
    {
      "id": 100,
      "content": "<extra_id_96>",
      "single_word": false,
      "lstrip": false,
      "rstrip": false,
      "normalized": false,
      "special": true
    },
    {
      "id": 101,
      "content": "<extra_id_97>",
      "single_word": false,
      "lstrip": false,
      "rstrip": false,
      "normalized": false,
      "special": true
    },
    {
      "id": 102,
      "content": "<extra_id_98>",
      "single_word": false,
      "lstrip": false,
      "rstrip": false,
      "normalized": false,
      "special": true
    },
    {
      "id": 103,
      "content": "<extra_id_99>",
      "single_word": false,
      "lstrip": false,
      "rstrip": false,
      "normalized": false,
      "special": true
    },
    {
      "id": 32000,
      "content": "<|im_end|>",
      "single_word": false,
      "lstrip": false,
      "rstrip": false,
      "normalized": false,
      "special": true
    },
    {
      "id": 32001,
      "content": "<|im_start|>",
      "single_word": false,
      "lstrip": false,
      "rstrip": false,
      "normalized": false,
      "special": false
    }
  ],
  "normalizer": {
    "type": "NFKC"
  },
  "pre_tokenizer": {
    "type": "Sequence",
    "pretokenizers": [
      {
        "type": "Metaspace",
        "replacement": "▁",
        "prepend_scheme": "always",
        "split": true
      },
      {
        "type": "Digits",
        "individual_digits": true
      }
    ]
  },
  "post_processor": {
    "type": "TemplateProcessing",
    "single": [
      {
        "SpecialToken": {
          "id": "<s>",
          "type_id": 0
        }
      },
      {
        "Sequence": {
          "id": "A",
          "type_id": 0
        }
      }
    ],
    "pair": [
      {
        "SpecialToken": {
          "id": "<s>",
          "type_id": 0
        }
      },
      {
        "Sequence": {
          "id": "A",
          "type_id": 0
        }
      },
      {
        "SpecialToken": {
          "id": "<s>",
          "type_id": 1
        }
      },
      {
        "Sequence": {
          "id": "B",
          "type_id": 1
        }
      }
    ],
    "special_tokens": {
      "<s>": {
        "id": "<s>",
        "ids": [
          1
        ],
        "tokens": [
          "<s>"
        ]
      }
    }
  },
  "decoder": {
    "type": "Sequence",
    "decoders": [
      {
        "type": "ByteFallback"
      },
      {
        "type": "Metaspace",
        "replacement": "▁",
        "prepend_scheme": "always",
        "split": true
      },
      {
        "type": "Fuse"
      },
      {
        "type": "Strip",
        "content": " ",
        "start": 1,
        "stop": 0
      }
    ]
  },
  "model": {
    "type": "BPE",
    "dropout": null,
    "unk_token": null,
    "continuing_subword_prefix": null,
    "end_of_word_suffix": null,
    "fuse_unk": true,
    "byte_fallback": true,
    "ignore_merges": false,
    "vocab": {
      "<unk>": 0,
      "<s>": 1,
      "</s>": 2,
      "<pad>": 3,
      "<extra_id_0>": 4,
      "<extra_id_1>": 5,
      "<extra_id_2>": 6,
      "<extra_id_3>": 7,
      "<extra_id_4>": 8,
      "<extra_id_5>": 9,
      "<extra_id_6>": 10,
      "<extra_id_7>": 11,
      "<extra_id_8>": 12,
      "<extra_id_9>": 13,
      "<extra_id_10>": 14,
      "<extra_id_11>": 15,
      "<extra_id_12>": 16,
      "<extra_id_13>": 17,
      "<extra_id_14>": 18,
      "<extra_id_15>": 19,
      "<extra_id_16>": 20,
      "<extra_id_17>": 21,
      "<extra_id_18>": 22,
      "<extra_id_19>": 23,
      "<extra_id_20>": 24,
      "<extra_id_21>": 25,
      "<extra_id_22>": 26,
      "<extra_id_23>": 27,
      "<extra_id_24>": 28,
      "<extra_id_25>": 29,
      "<extra_id_26>": 30,
      "<extra_id_27>": 31,
      "<extra_id_28>": 32,
      "<extra_id_29>": 33,
      "<extra_id_30>": 34,
      "<extra_id_31>": 35,
      "<extra_id_32>": 36,
      "<extra_id_33>": 37,
      "<extra_id_34>": 38,
      "<extra_id_35>": 39,
      "<extra_id_36>": 40,
      "<extra_id_37>": 41,
      "<extra_id_38>": 42,
      "<extra_id_39>": 43,
      "<extra_id_40>": 44,
      "<extra_id_41>": 45,
      "<extra_id_42>": 46,
      "<extra_id_43>": 47,
      "<extra_id_44>": 48,
      "<extra_id_45>": 49,
      "<extra_id_46>": 50,
      "<extra_id_47>": 51,
      "<extra_id_48>": 52,
      "<extra_id_49>": 53,
      "<extra_id_50>": 54,
      "<extra_id_51>": 55,
      "<extra_id_52>": 56,
      "<extra_id_53>": 57,
      "<extra_id_54>": 58,
      "<extra_id_55>": 59,
      "<extra_id_56>": 60,
      "<extra_id_57>": 61,
      "<extra_id_58>": 62,
      "<extra_id_59>": 63,
      "<extra_id_60>": 64,
      "<extra_id_61>": 65,
      "<extra_id_62>": 66,
      "<extra_id_63>": 67,
      "<extra_id_64>": 68,
      "<extra_id_65>": 69,
      "<extra_id_66>": 70,
      "<extra_id_67>": 71,
      "<extra_id_68>": 72,
      "<extra_id_69>": 73,
      "<extra_id_70>": 74,
      "<extra_id_71>": 75,
      "<extra_id_72>": 76,
      "<extra_id_73>": 77,
      "<extra_id_74>": 78,
      "<extra_id_75>": 79,
      "<extra_id_76>": 80,
      "<extra_id_77>": 81,
      "<extra_id_78>": 82,
      "<extra_id_79>": 83,
      "<extra_id_80>": 84,
      "<extra_id_81>": 85,
      "<extra_id_82>": 86,
      "<extra_id_83>": 87,
      "<extra_id_84>": 88,
      "<extra_id_85>": 89,
      "<extra_id_86>": 90,
      "<extra_id_87>": 91,
      "<extra_id_88>": 92,
      "<extra_id_89>": 93,
      "<extra_id_90>": 94,
      "<extra_id_91>": 95,
      "<extra_id_92>": 96,
      "<extra_id_93>": 97,
      "<extra_id_94>": 98,
      "<extra_id_95>": 99,
      "<extra_id_96>": 100,
      "<extra_id_97>": 101,
      "<extra_id_98>": 102,
      "<extra_id_99>": 103,
      "\u0000": 104,
      "\t": 105,
      "\n": 106,
      "\r": 107,
      "!": 108,
      "\"": 109,
      "#": 110,
      "$": 111,
      "%": 112,
      "&": 113,
      "'": 114,
      "(": 115,
      ")": 116,
      "*": 117,
      "+": 118,
      ",": 119,
      "-": 120,
      ".": 121,
      "/": 122,
      "0": 123,
      "1": 124,
      "2": 125,
      "3": 126,
      "4": 127,
      "5": 128,
      "6": 129,
      "7": 130,
      "8": 131,
      "9": 132,
      ":": 133,
      ";": 134,
      "<": 135,
      "=": 136,
      ">": 137,
      "?": 138,
      "@": 139,
      "A": 140,
      "B": 141,
      "C": 142,
      "D": 143,
      "E": 144,
      "F": 145,
      "G": 146,
      "H": 147,
      "I": 148,
      "J": 149,
      "K": 150,
      "L": 151,
      "M": 152,
      "N": 153,
      "O": 154,
      "P": 155,
      "Q": 156,
      "R": 157,
      "S": 158,
      "T": 159,
      "U": 160,
      "V": 161,
      "W": 162,
      "X": 163,
      "Y": 164,
      "Z": 165,
      "[": 166,
      "\\": 167,
      "]": 168,
      "^": 169,
      "_": 170,
      "`": 171,
      "a": 172,
      "b": 173,
      "c": 174,
      "d": 175,
      "e": 176,
      "f": 177,
      "g": 178,
      "h": 179,
      "i": 180,
      "j": 181,
      "k": 182,
      "l": 183,
      "m": 184,
      "n": 185,
      "o": 186,
      "p": 187,
      "q": 188,
      "r": 189,
      "s": 190,
      "t": 191,
      "u": 192,
      "v": 193,
      "w": 194,
      "x": 195,
      "y": 196,
      "z": 197,
      "{": 198,
      "|": 199,
      "}": 200,
      "~": 201,
      "": 202,
      "": 203,
      "£": 204,
      "§": 205,
      "©": 206,
      "«": 207,
      "­": 208,
      "®": 209,
      "°": 210,
      "±": 211,
      "¶": 212,
      "·": 213,
      "»": 214,
      "¿": 215,
      "À": 216,
      "Á": 217,
      "Â": 218,
      "Ã": 219,
      "Ä": 220,
      "Å": 221,
      "Ç": 222,
      "È": 223,
      "É": 224,
      "Ê": 225,
      "Ë": 226,
      "Î": 227,
      "Ó": 228,
      "Ô": 229,
      "Ö": 230,
      "×": 231,
      "Ø": 232,
      "Ü": 233,
      "ß": 234,
      "à": 235,
      "á": 236,
      "â": 237,
      "ã": 238,
      "ä": 239,
      "å": 240,
      "æ": 241,
      "ç": 242,
      "è": 243,
      "é": 244,
      "ê": 245,
      "ë": 246,
      "ì": 247,
      "í": 248,
      "î": 249,
      "ï": 250,
      "ð": 251,
      "ñ": 252,
      "ò": 253,
      "ó": 254,
      "ô": 255,
      "õ": 256,
      "ö": 257,
      "ø": 258,
      "ù": 259,
      "ú": 260,
      "û": 261,
      "ü": 262,
      "ý": 263,
      "ā": 264,
      "ă": 265,
      "ą": 266,
      "ć": 267,
      "Č": 268,
      "č": 269,
      "đ": 270,
      "ē": 271,
      "ę": 272,
      "ě": 273,
      "ğ": 274,
      "ī": 275,
      "ı": 276,
      "Ł": 277,
      "ł": 278,
      "ń": 279,
      "ō": 280,
      "ő": 281,
      "Œ": 282,
      "œ": 283,
      "ř": 284,
      "ś": 285,
      "ş": 286,
      "Š": 287,
      "š": 288,
      "ū": 289,
      "ů": 290,
      "ű": 291,
      "ź": 292,
      "ż": 293,
      "ž": 294,
      "ư": 295,
      "ș": 296,
      "ț": 297,
      "ə": 298,
      "́": 299,
      "̈": 300,
      "Δ": 301,
      "ά": 302,
      "ί": 303,
      "α": 304,
      "β": 305,
      "γ": 306,
      "δ": 307,
      "ε": 308,
      "η": 309,
      "ι": 310,
      "κ": 311,
      "λ": 312,
      "μ": 313,
      "ν": 314,
      "ο": 315,
      "π": 316,
      "ρ": 317,
      "ς": 318,
      "σ": 319,
      "τ": 320,
      "υ": 321,
      "ω": 322,
      "І": 323,
      "А": 324,
      "Б": 325,
      "В": 326,
      "Г": 327,
      "Д": 328,
      "Е": 329,
      "Ж": 330,
      "З": 331,
      "И": 332,
      "К": 333,
      "Л": 334,
      "М": 335,
      "Н": 336,
      "О": 337,
      "П": 338,
      "Р": 339,
      "С": 340,
      "Т": 341,
      "У": 342,
      "Ф": 343,
      "Х": 344,
      "Ц": 345,
      "Ч": 346,
      "Ш": 347,
      "Ь": 348,
      "Э": 349,
      "Я": 350,
      "а": 351,
      "б": 352,
      "в": 353,
      "г": 354,
      "д": 355,
      "е": 356,
      "ж": 357,
      "з": 358,
      "и": 359,
      "й": 360,
      "к": 361,
      "л": 362,
      "м": 363,
      "н": 364,
      "о": 365,
      "п": 366,
      "р": 367,
      "с": 368,
      "т": 369,
      "у": 370,
      "ф": 371,
      "х": 372,
      "ц": 373,
      "ч": 374,
      "ш": 375,
      "щ": 376,
      "ъ": 377,
      "ы": 378,
      "ь": 379,
      "э": 380,
      "ю": 381,
      "я": 382,
      "ё": 383,
      "є": 384,
      "і": 385,
      "ї": 386,
      "ј": 387,
      "א": 388,
      "ב": 389,
      "ה": 390,
      "ו": 391,
      "י": 392,
      "ל": 393,
      "מ": 394,
      "ר": 395,
      "ש": 396,
      "ת": 397,
      "أ": 398,
      "ا": 399,
      "ب": 400,
      "ة": 401,
      "ت": 402,
      "ج": 403,
      "ح": 404,
      "خ": 405,
      "د": 406,
      "ر": 407,
      "ز": 408,
      "س": 409,
      "ش": 410,
      "ص": 411,
      "ط": 412,
      "ع": 413,
      "ف": 414,
      "ق": 415,
      "ك": 416,
      "ل": 417,
      "م": 418,
      "ن": 419,
      "ه": 420,
      "و": 421,
      "ى": 422,
      "ي": 423,
      "َ": 424,
      "ِ": 425,
      "ک": 426,
      "ی": 427,
      "ं": 428,
      "क": 429,
      "त": 430,
      "न": 431,
      "प": 432,
      "म": 433,
      "र": 434,
      "ल": 435,
      "स": 436,
      "ह": 437,
      "ा": 438,
      "ि": 439,
      "ी": 440,
      "े": 441,
      "्": 442,
      "া": 443,
      "்": 444,
      "ก": 445,
      "ง": 446,
      "น": 447,
      "ร": 448,
      "อ": 449,
      "า": 450,
      "เ": 451,
      "่": 452,
      "ệ": 453,
      "​": 454,
      "‍": 455,
      "‎": 456,
      "‐": 457,
      "–": 458,
      "—": 459,
      "―": 460,
      "‘": 461,
      "’": 462,
      "“": 463,
      "”": 464,
      "„": 465,
      "†": 466,
      "•": 467,
      "′": 468,
      "›": 469,
      "⁄": 470,
      "€": 471,
      "←": 472,
      "↑": 473,
      "→": 474,
      "↓": 475,
      "∑": 476,
      "−": 477,
      "≠": 478,
      "≤": 479,
      "≥": 480,
      "⋅": 481,
      "─": 482,
      "━": 483,
      "│": 484,
      "└": 485,
      "├": 486,
      "═": 487,
      "▁": 488,
      "█": 489,
      "▉": 490,
      "░": 491,
      "■": 492,
      "►": 493,
      "●": 494,
      "★": 495,
      "☆": 496,
      "☞": 497,
      "♥": 498,
      "♦": 499,
      "✅": 500,
      "✓": 501,
      "✔": 502,
      "❤": 503,
      "⭐": 504,
      "、": 505,
      "。": 506,
      "「": 507,
      "」": 508,
      "【": 509,
      "】": 510,
      "あ": 511,
      "い": 512,
      "う": 513,
      "か": 514,
      "が": 515,
      "き": 516,
      "く": 517,
      "こ": 518,
      "さ": 519,
      "し": 520,
      "す": 521,
      "た": 522,
      "だ": 523,
      "っ": 524,
      "つ": 525,
      "て": 526,
      "で": 527,
      "と": 528,
      "な": 529,
      "に": 530,
      "の": 531,
      "は": 532,
      "ま": 533,
      "め": 534,
      "も": 535,
      "よ": 536,
      "ら": 537,
      "り": 538,
      "る": 539,
      "れ": 540,
      "を": 541,
      "ん": 542,
      "ア": 543,
      "ィ": 544,
      "イ": 545,
      "ウ": 546,
      "キ": 547,
      "ク": 548,
      "グ": 549,
      "コ": 550,
      "サ": 551,
      "シ": 552,
      "ジ": 553,
      "ス": 554,
      "セ": 555,
      "タ": 556,
      "ッ": 557,
      "テ": 558,
      "デ": 559,
      "ト": 560,
      "ド": 561,
      "バ": 562,
      "パ": 563,
      "フ": 564,
      "ブ": 565,
      "プ": 566,
      "マ": 567,
      "ム": 568,
      "メ": 569,
      "ュ": 570,
      "ョ": 571,
      "ラ": 572,
      "リ": 573,
      "ル": 574,
      "レ": 575,
      "ロ": 576,
      "ン": 577,
      "ー": 578,
      "一": 579,
      "三": 580,
      "上": 581,
      "下": 582,
      "不": 583,
      "与": 584,
      "且": 585,
      "业": 586,
      "东": 587,
      "两": 588,
      "个": 589,
      "中": 590,
      "串": 591,
      "为": 592,
      "主": 593,
      "么": 594,
      "义": 595,
      "之": 596,
      "也": 597,
      "了": 598,
      "事": 599,
      "二": 600,
      "于": 601,
      "些": 602,
      "交": 603,
      "产": 604,
      "人": 605,
      "什": 606,
      "从": 607,
      "他": 608,
      "代": 609,
      "令": 610,
      "以": 611,
      "们": 612,
      "件": 613,
      "任": 614,
      "优": 615,
      "会": 616,
      "传": 617,
      "但": 618,
      "位": 619,
      "体": 620,
      "何": 621,
      "作": 622,
      "你": 623,
      "使": 624,
      "例": 625,
      "供": 626,
      "保": 627,
      "信": 628,
      "修": 629,
      "候": 630,
      "值": 631,
      "做": 632,
      "像": 633,
      "元": 634,
      "先": 635,
      "入": 636,
      "全": 637,
      "公": 638,
      "共": 639,
      "关": 640,
      "其": 641,
      "具": 642,
      "内": 643,
      "再": 644,
      "写": 645,
      "决": 646,
      "出": 647,
      "击": 648,
      "函": 649,
      "分": 650,
      "列": 651,
      "则": 652,
      "创": 653,
      "初": 654,
      "删": 655,
      "利": 656,
      "别": 657,
      "到": 658,
      "制": 659,
      "前": 660,
      "力": 661,
      "功": 662,
      "加": 663,
      "务": 664,
      "动": 665,
      "包": 666,
      "化": 667,
      "区": 668,
      "单": 669,
      "南": 670,
      "博": 671,
      "即": 672,
      "原": 673,
      "去": 674,
      "县": 675,
      "参": 676,
      "及": 677,
      "反": 678,
      "发": 679,
      "取": 680,
      "受": 681,
      "变": 682,
      "口": 683,
      "只": 684,
      "可": 685,
      "台": 686,
      "号": 687,
      "各": 688,
      "合": 689,
      "同": 690,
      "名": 691,
      "后": 692,
      "向": 693,
      "否": 694,
      "含": 695,
      "启": 696,
      "员": 697,
      "命": 698,
      "和": 699,
      "品": 700,
      "商": 701,
      "器": 702,
      "回": 703,
      "因": 704,
      "国": 705,
      "图": 706,
      "在": 707,
      "地": 708,
      "址": 709,
      "块": 710,
      "型": 711,
      "域": 712,
      "基": 713,
      "場": 714,
      "增": 715,
      "处": 716,
      "备": 717,
      "复": 718,
      "外": 719,
      "多": 720,
      "大": 721,
      "天": 722,
      "失": 723,
      "头": 724,
      "好": 725,
      "如": 726,
      "始": 727,
      "子": 728,
      "字": 729,
      "存": 730,
      "学": 731,
      "它": 732,
      "安": 733,
      "完": 734,
      "定": 735,
      "实": 736,
      "客": 737,
      "家": 738,
      "容": 739,
      "密": 740,
      "对": 741,
      "导": 742,
      "将": 743,
      "小": 744,
      "少": 745,
      "就": 746,
      "层": 747,
      "展": 748,
      "属": 749,
      "山": 750,
      "工": 751,
      "己": 752,
      "已": 753,
      "市": 754,
      "布": 755,
      "常": 756,
      "平": 757,
      "年": 758,
      "并": 759,
      "序": 760,
      "库": 761,
      "应": 762,
      "度": 763,
      "建": 764,
      "开": 765,
      "异": 766,
      "式": 767,
      "引": 768,
      "当": 769,
      "录": 770,
      "形": 771,
      "很": 772,
      "得": 773,
      "微": 774,
      "心": 775,
      "必": 776,
      "快": 777,
      "态": 778,
      "性": 779,
      "总": 780,
      "息": 781,
      "您": 782,
      "情": 783,
      "想": 784,
      "意": 785,
      "感": 786,
      "成": 787,
      "我": 788,
      "或": 789,
      "户": 790,
      "所": 791,
      "手": 792,
      "打": 793,
      "执": 794,
      "找": 795,
      "技": 796,
      "把": 797,
      "报": 798,
      "择": 799,
      "持": 800,
      "指": 801,
      "按": 802,
      "换": 803,
      "据": 804,
      "排": 805,
      "接": 806,
      "控": 807,
      "描": 808,
      "提": 809,
      "操": 810,
      "支": 811,
      "收": 812,
      "改": 813,
      "放": 814,
      "效": 815,
      "数": 816,
      "整": 817,
      "文": 818,
      "断": 819,
      "新": 820,
      "方": 821,
      "无": 822,
      "日": 823,
      "时": 824,
      "明": 825,
      "是": 826,
      "显": 827,
      "時": 828,
      "更": 829,
      "最": 830,
      "月": 831,
      "有": 832,
      "服": 833,
      "期": 834,
      "未": 835,
      "本": 836,
      "机": 837,
      "权": 838,
      "条": 839,
      "来": 840,
      "构": 841,
      "析": 842,
      "果": 843,
      "查": 844,
      "标": 845,
      "样": 846,
      "根": 847,
      "格": 848,
      "案": 849,
      "检": 850,
      "模": 851,
      "次": 852,
      "正": 853,
      "此": 854,
      "步": 855,
      "段": 856,
      "每": 857,
      "比": 858,
      "水": 859,
      "求": 860,
      "没": 861,
      "法": 862,
      "注": 863,
      "活": 864,
      "流": 865,
      "测": 866,
      "海": 867,
      "消": 868,
      "添": 869,
      "源": 870,
      "点": 871,
      "热": 872,
      "然": 873,
      "片": 874,
      "版": 875,
      "物": 876,
      "特": 877,
      "状": 878,
      "环": 879,
      "现": 880,
      "理": 881,
      "生": 882,
      "用": 883,
      "由": 884,
      "电": 885,
      "界": 886,
      "登": 887,
      "的": 888,
      "目": 889,
      "直": 890,
      "相": 891,
      "看": 892,
      "着": 893,
      "知": 894,
      "码": 895,
      "确": 896,
      "示": 897,
      "种": 898,
      "称": 899,
      "移": 900,
      "程": 901,
      "空": 902,
      "立": 903,
      "端": 904,
      "符": 905,
      "第": 906,
      "等": 907,
      "签": 908,
      "简": 909,
      "算": 910,
      "管": 911,
      "类": 912,
      "系": 913,
      "素": 914,
      "索": 915,
      "级": 916,
      "线": 917,
      "组": 918,
      "经": 919,
      "结": 920,
      "给": 921,
      "络": 922,
      "统": 923,
      "编": 924,
      "网": 925,
      "置": 926,
      "美": 927,
      "考": 928,
      "者": 929,
      "而": 930,
      "联": 931,
      "能": 932,
      "自": 933,
      "色": 934,
      "节": 935,
      "获": 936,
      "行": 937,
      "表": 938,
      "被": 939,
      "装": 940,
      "西": 941,
      "要": 942,
      "规": 943,
      "视": 944,
      "解": 945,
      "言": 946,
      "计": 947,
      "认": 948,
      "记": 949,
      "论": 950,
      "设": 951,
      "证": 952,
      "识": 953,
      "试": 954,
      "话": 955,
      "询": 956,
      "该": 957,
      "语": 958,
      "误": 959,
      "说": 960,
      "请": 961,
      "读": 962,
      "调": 963,
      "象": 964,
      "资": 965,
      "起": 966,
      "路": 967,
      "身": 968,
      "转": 969,
      "载": 970,
      "输": 971,
      "过": 972,
      "运": 973,
      "返": 974,
      "还": 975,
      "这": 976,
      "进": 977,
      "连": 978,
      "述": 979,
      "送": 980,
      "选": 981,
      "通": 982,
      "造": 983,
      "道": 984,
      "那": 985,
      "部": 986,
      "都": 987,
      "配": 988,
      "里": 989,
      "重": 990,
      "量": 991,
      "金": 992,
      "链": 993,
      "错": 994,
      "键": 995,
      "长": 996,
      "问": 997,
      "间": 998,
      "限": 999,
      "除": 1000,
      "集": 1001,
      "需": 1002,
      "非": 1003,
      "面": 1004,
      "页": 1005,
      "项": 1006,
      "题": 1007,
      "验": 1008,
      "高": 1009,
      "默": 1010,
      "가": 1011,
      "개": 1012,
      "것": 1013,
      "게": 1014,
      "경": 1015,
      "고": 1016,
      "과": 1017,
      "구": 1018,
      "그": 1019,
      "기": 1020,
      "나": 1021,
      "는": 1022,
      "니": 1023,
      "다": 1024,
      "대": 1025,
      "데": 1026,
      "도": 1027,
      "동": 1028,
      "되": 1029,
      "된": 1030,
      "드": 1031,
      "들": 1032,
      "때": 1033,
      "라": 1034,
      "래": 1035,
      "로": 1036,
      "를": 1037,
      "리": 1038,
      "만": 1039,
      "면": 1040,
      "모": 1041,
      "문": 1042,
      "보": 1043,
      "부": 1044,
      "비": 1045,
      "사": 1046,
      "상": 1047,
      "생": 1048,
      "서": 1049,
      "설": 1050,
      "성": 1051,
      "세": 1052,
      "소": 1053,
      "수": 1054,
      "스": 1055,
      "습": 1056,
      "시": 1057,
      "아": 1058,
      "어": 1059,
      "에": 1060,
      "여": 1061,
      "와": 1062,
      "요": 1063,
      "용": 1064,
      "우": 1065,
      "위": 1066,
      "으": 1067,
      "은": 1068,
      "을": 1069,
      "음": 1070,
      "의": 1071,
      "이": 1072,
      "인": 1073,
      "일": 1074,
      "입": 1075,
      "있": 1076,
      "자": 1077,
      "작": 1078,
      "장": 1079,
      "적": 1080,
      "전": 1081,
      "정": 1082,
      "제": 1083,
      "주": 1084,
      "지": 1085,
      "터": 1086,
      "트": 1087,
      "파": 1088,
      "프": 1089,
      "하": 1090,
      "한": 1091,
      "할": 1092,
      "함": 1093,
      "합": 1094,
      "해": 1095,
      "행": 1096,
      "": 1097,
      "️": 1098,
      "﻿": 1099,
      "�": 1100,
      "😀": 1101,
      "😉": 1102,
      "🙂": 1103,
      "es": 1104,
      "on": 1105,
      "▁d": 1106,
      "er": 1107,
      "en": 1108,
      "in": 1109,
      "▁a": 1110,
      "▁t": 1111,
      "re": 1112,
      "▁p": 1113,
      "▁s": 1114,
      "▁l": 1115,
      "▁c": 1116,
      "ti": 1117,
      "ou": 1118,
      "an": 1119,
      "is": 1120,
      "or": 1121,
      "he": 1122,
      "it": 1123,
      "ar": 1124,
      "▁de": 1125,
      "le": 1126,
      "▁m": 1127,
      "at": 1128,
      "ent": 1129,
      "et": 1130,
      "▁f": 1131,
      "al": 1132,
      "tion": 1133,
      "qu": 1134,
      "▁the": 1135,
      "ur": 1136,
      "om": 1137,
      "▁b": 1138,
      "▁n": 1139,
      "el": 1140,
      "as": 1141,
      "il": 1142,
      "▁o": 1143,
      "▁w": 1144,
      "un": 1145,
      "ic": 1146,
      "▁in": 1147,
      "te": 1148,
      "ing": 1149,
      "ro": 1150,
      "▁an": 1151,
      "▁v": 1152,
      "us": 1153,
      "ra": 1154,
      ".\n": 1155,
      "ed": 1156,
      "our": 1157,
      "▁la": 1158,
      "ce": 1159,
      "ment": 1160,
      "▁of": 1161,
      "ation": 1162,
      "▁to": 1163,
      "ri": 1164,
      "▁C": 1165,
      "▁h": 1166,
      "▁et": 1167,
      "ec": 1168,
      "▁re": 1169,
      "▁le": 1170,
      "▁and": 1171,
      "ol": 1172,
      "▁S": 1173,
      "am": 1174,
      "▁(": 1175,
      "id": 1176,
      "▁r": 1177,
      "ut": 1178,
      "▁qu": 1179,
      "os": 1180,
      "▁th": 1181,
      "est": 1182,
      "ac": 1183,
      "▁e": 1184,
      "▁g": 1185,
      "▁en": 1186,
      "ir": 1187,
      "▁à": 1188,
      "▁un": 1189,
      "ot": 1190,
      "▁con": 1191,
      "▁A": 1192,
      "ag": 1193,
      "\n\n": 1194,
      "im": 1195,
      "ve": 1196,
      "▁des": 1197,
      "▁T": 1198,
      "ant": 1199,
      "▁L": 1200,
      "ers": 1201,
      "▁P": 1202,
      "ul": 1203,
      "▁M": 1204,
      "ig": 1205,
      "se": 1206,
      "▁les": 1207,
      "de": 1208,
      "▁I": 1209,
      "ch": 1210,
      "▁=": 1211,
      "ous": 1212,
      "ter": 1213,
      "ie": 1214,
      "▁par": 1215,
      "tr": 1216,
      "ad": 1217,
      "▁com": 1218,
      "ab": 1219,
      "ans": 1220,
      "if": 1221,
      "▁D": 1222,
      "▁pro": 1223,
      "ess": 1224,
      "▁j": 1225,
      "▁for": 1226,
      "▁du": 1227,
      "pp": 1228,
      "ire": 1229,
      "ate": 1230,
      "ion": 1231,
      "me": 1232,
      "▁B": 1233,
      "és": 1234,
      "▁\"": 1235,
      ";\n": 1236,
      "oc": 1237,
      "▁on": 1238,
      "▁is": 1239,
      "..": 1240,
      "--": 1241,
      "ay": 1242,
      "st": 1243,
      "que": 1244,
      "ne": 1245,
      "ow": 1246,
      "\t\t": 1247,
      "▁R": 1248,
      "ort": 1249,
      "ux": 1250,
      "▁y": 1251,
      "▁F": 1252,
      "▁é": 1253,
      "▁E": 1254,
      "um": 1255,
      "▁pour": 1256,
      "▁:": 1257,
      "ont": 1258,
      "od": 1259,
      ")\n": 1260,
      "out": 1261,
      "ain": 1262,
      "ver": 1263,
      "▁pl": 1264,
      "and": 1265,
      "▁N": 1266,
      "ist": 1267,
      "▁pr": 1268,
      "ly": 1269,
      "▁ch": 1270,
      "▁l’": 1271,
      "age": 1272,
      "op": 1273,
      "end": 1274,
      "▁dé": 1275,
      "th": 1276,
      "ue": 1277,
      "ure": 1278,
      "▁ex": 1279,
      "▁be": 1280,
      "▁se": 1281,
      "▁l'": 1282,
      "▁d’": 1283,
      "ith": 1284,
      "s,": 1285,
      "ite": 1286,
      "ub": 1287,
      "▁ne": 1288,
      "iv": 1289,
      "▁st": 1290,
      "pl": 1291,
      "ill": 1292,
      "▁G": 1293,
      "▁al": 1294,
      ",\n": 1295,
      "▁as": 1296,
      "s.": 1297,
      "ais": 1298,
      "▁est": 1299,
      "▁sur": 1300,
      "ap": 1301,
      "▁that": 1302,
      "ée": 1303,
      "▁d'": 1304,
      "▁av": 1305,
      "▁H": 1306,
      "og": 1307,
      "uc": 1308,
      "▁que": 1309,
      "tic": 1310,
      "▁wh": 1311,
      "res": 1312,
      "▁dans": 1313,
      "ine": 1314,
      "ge": 1315,
      "▁{": 1316,
      "▁au": 1317,
      "▁une": 1318,
      "ff": 1319,
      "em": 1320,
      "▁J": 1321,
      "ass": 1322,
      "▁-": 1323,
      "▁with": 1324,
      "▁W": 1325,
      "pe": 1326,
      "pr": 1327,
      "les": 1328,
      "▁or": 1329,
      "▁'": 1330,
      "di": 1331,
      "▁ac": 1332,
      "li": 1333,
      "au": 1334,
      "▁su": 1335,
      "ance": 1336,
      "ht": 1337,
      "▁ré": 1338,
      ":\n": 1339,
      "()": 1340,
      "▁it": 1341,
      "av": 1342,
      "int": 1343,
      "ame": 1344,
      "ore": 1345,
      "es,": 1346,
      "ke": 1347,
      "ité": 1348,
      "si": 1349,
      "▁O": 1350,
      "orm": 1351,
      "▁V": 1352,
      "oun": 1353,
      "ien": 1354,
      "▁at": 1355,
      "ér": 1356,
      "▁qui": 1357,
      "imp": 1358,
      "//": 1359,
      "▁fr": 1360,
      "'s": 1361,
      "▁ou": 1362,
      "ect": 1363,
      "able": 1364,
      "ction": 1365,
      "ale": 1366,
      "▁tr": 1367,
      "▁*": 1368,
      "aire": 1369,
      "ait": 1370,
      "ere": 1371,
      "elf": 1372,
      "tre": 1373,
      "ier": 1374,
      "▁not": 1375,
      "ons": 1376,
      "mb": 1377,
      "elle": 1378,
      "ard": 1379,
      "lic": 1380,
      "▁pe": 1381,
      "▁pas": 1382,
      "ob": 1383,
      "ati": 1384,
      "▁vous": 1385,
      "▁he": 1386,
      "ok": 1387,
      ".\n\n": 1388,
      "té": 1389,
      "all": 1390,
      ");\n": 1391,
      "urs": 1392,
      "▁are": 1393,
      "▁}": 1394,
      "cl": 1395,
      "onn": 1396,
      "ct": 1397,
      "ex": 1398,
      "ile": 1399,
      "▁ar": 1400,
      "til": 1401,
      "----": 1402,
      "per": 1403,
      "ord": 1404,
      "▁U": 1405,
      "ity": 1406,
      "tur": 1407,
      "▁plus": 1408,
      "▁{\n": 1409,
      "▁The": 1410,
      "▁if": 1411,
      "ld": 1412,
      "▁this": 1413,
      "ond": 1414,
      "ille": 1415,
      "éc": 1416,
      "▁comp": 1417,
      "**": 1418,
      "ence": 1419,
      "tions": 1420,
      "▁you": 1421,
      "ult": 1422,
      "▁ma": 1423,
      "▁\n": 1424,
      "▁cont": 1425,
      "▁u": 1426,
      "ted": 1427,
      "In": 1428,
      "ies": 1429,
      "ations": 1430,
      "ace": 1431,
      "▁res": 1432,
      "ty": 1433,
      "form": 1434,
      "ave": 1435,
      "par": 1436,
      "com": 1437,
      "one": 1438,
      "ise": 1439,
      "▁ce": 1440,
      "▁tra": 1441,
      "ign": 1442,
      "ice": 1443,
      "erv": 1444,
      "oir": 1445,
      "▁from": 1446,
      "▁us": 1447,
      "▁we": 1448,
      "▁by": 1449,
      "ère": 1450,
      "ode": 1451,
      "anc": 1452,
      "\r\n": 1453,
      "get": 1454,
      "▁cl": 1455,
      "ib": 1456,
      "es.": 1457,
      "▁cons": 1458,
      "▁In": 1459,
      "ique": 1460,
      "ip": 1461,
      "ens": 1462,
      "▁was": 1463,
      "▁ad": 1464,
      "▁app": 1465,
      "▁per": 1466,
      "ès": 1467,
      "ide": 1468,
      "▁avec": 1469,
      "iss": 1470,
      "turn": 1471,
      "ook": 1472,
      "ées": 1473,
      "ial": 1474,
      "ang": 1475,
      "elf.": 1476,
      "iti": 1477,
      "ail": 1478,
      "ph": 1479,
      "ack": 1480,
      "put": 1481,
      "pos": 1482,
      "ase": 1483,
      "ps": 1484,
      "ques": 1485,
      "rou": 1486,
      "oy": 1487,
      "ell": 1488,
      "\nL": 1489,
      "ind": 1490,
      "air": 1491,
      "▁sh": 1492,
      "iz": 1493,
      "ert": 1494,
      "ath": 1495,
      "),": 1496,
      "▁comm": 1497,
      "▁k": 1498,
      "▁sp": 1499,
      "ors": 1500,
      "▁ra": 1501,
      "ust": 1502,
      "\\x": 1503,
      "▁<": 1504,
      "\nC": 1505,
      "ud": 1506,
      "ich": 1507,
      "▁sont": 1508,
      "▁[": 1509,
      "ong": 1510,
      "aut": 1511,
      "che": 1512,
      "▁dis": 1513,
      "ata": 1514,
      "une": 1515,
      "art": 1516,
      "ois": 1517,
      "▁K": 1518,
      "ach": 1519,
      "▁me": 1520,
      "',": 1521,
      "▁ab": 1522,
      "\",": 1523,
      "▁»": 1524,
      "ments": 1525,
      "▁can": 1526,
      "▁il": 1527,
      "import": 1528,
      "==": 1529,
      "\nA": 1530,
      "ost": 1531,
      "are": 1532,
      "tif": 1533,
      "otre": 1534,
      "enc": 1535,
      "▁int": 1536,
      "▁have": 1537,
      "én": 1538,
      "▁Ch": 1539,
      "▁so": 1540,
      "aux": 1541,
      "ouv": 1542,
      "▁all": 1543,
      "ome": 1544,
      "▁Th": 1545,
      "##": 1546,
      "▁|": 1547,
      "▁Le": 1548,
      "ven": 1549,
      "éri": 1550,
      "act": 1551,
      "ption": 1552,
      "...": 1553,
      "ins": 1554,
      "ork": 1555,
      "▁self.": 1556,
      "▁mar": 1557,
      "ai": 1558,
      "▁return": 1559,
      "▁do": 1560,
      "▁sa": 1561,
      "app": 1562,
      "▁+": 1563,
      "ould": 1564,
      "ublic": 1565,
      "\nP": 1566,
      "ette": 1567,
      "ré": 1568,
      "ak": 1569,
      "ear": 1570,
      "▁aux": 1571,
      "▁je": 1572,
      "ast": 1573,
      "▁aut": 1574,
      "ia": 1575,
      ").": 1576,
      "min": 1577,
      "▁pre": 1578,
      "▁no": 1579,
      "ight": 1580,
      "▁votre": 1581,
      "__": 1582,
      "▁will": 1583,
      "▁ent": 1584,
      "tu": 1585,
      "vel": 1586,
      "ime": 1587,
      "ON": 1588,
      "ated": 1589,
      "▁!": 1590,
      "ys": 1591,
      "ES": 1592,
      "oi": 1593,
      "▁son": 1594,
      "pt": 1595,
      "der": 1596,
      "▁inter": 1597,
      "The": 1598,
      "ble": 1599,
      "▁col": 1600,
      "▁pos": 1601,
      "▁has": 1602,
      "ég": 1603,
      "\":": 1604,
      "ER": 1605,
      "▁«": 1606,
      "cri": 1607,
      "ern": 1608,
      "▁str": 1609,
      "ents": 1610,
      ".s": 1611,
      ";\n\n": 1612,
      "val": 1613,
      "pon": 1614,
      "ound": 1615,
      "▁pers": 1616,
      "▁?": 1617,
      "▁man": 1618,
      "duc": 1619,
      "ber": 1620,
      "(\"": 1621,
      "▁fin": 1622,
      "mes": 1623,
      "▁new": 1624,
      "cess": 1625,
      "ary": 1626,
      "ours": 1627,
      "\nS": 1628,
      "ple": 1629,
      "ét": 1630,
      "▁$": 1631,
      "use": 1632,
      "iff": 1633,
      "ts": 1634,
      "uit": 1635,
      "con": 1636,
      "▁/": 1637,
      "▁gr": 1638,
      "tilis": 1639,
      "être": 1640,
      "ally": 1641,
      "oci": 1642,
      "▁La": 1643,
      "▁mod": 1644,
      "▁An": 1645,
      "▁nous": 1646,
      "ive": 1647,
      "(s": 1648,
      "xt": 1649,
      "mbre": 1650,
      "ov": 1651,
      "ock": 1652,
      "▁En": 1653,
      "tem": 1654,
      "enti": 1655,
      "▁out": 1656,
      "er.": 1657,
      "ype": 1658,
      "er,": 1659,
      "uis": 1660,
      "ession": 1661,
      "ari": 1662,
      "▁but": 1663,
      "▁#": 1664,
      "ten": 1665,
      "▁ob": 1666,
      "▁tout": 1667,
      "ject": 1668,
      "ll": 1669,
      "ui": 1670,
      "▁Y": 1671,
      "vent": 1672,
      "▁&": 1673,
      "▁pri": 1674,
      "▁am": 1675,
      "▁go": 1676,
      "▁min": 1677,
      "ange": 1678,
      "ose": 1679,
      "▁your": 1680,
      "gh": 1681,
      "▁\\": 1682,
      "▁def": 1683,
      "▁off": 1684,
      "▁rec": 1685,
      "En": 1686,
      "rit": 1687,
      "):\n": 1688,
      "--------": 1689,
      "aires": 1690,
      "▁mon": 1691,
      "lement": 1692,
      "▁ass": 1693,
      "▁sc": 1694,
      "=\"": 1695,
      "ory": 1696,
      "oint": 1697,
      "pro": 1698,
      "’est": 1699,
      "arg": 1700,
      "ants": 1701,
      "ition": 1702,
      "▁–": 1703,
      "▁one": 1704,
      "bu": 1705,
      "ett": 1706,
      "mer": 1707,
      "▁ro": 1708,
      "\"\n": 1709,
      "▁sec": 1710,
      "▁ag": 1711,
      "man": 1712,
      "▁val": 1713,
      "▁ser": 1714,
      "port": 1715,
      "tiv": 1716,
      "elles": 1717,
      ")\n\n": 1718,
      "\t\t\t\t": 1719,
      "\nM": 1720,
      "▁public": 1721,
      "ss": 1722,
      "▁mais": 1723,
      "ma": 1724,
      "▁num": 1725,
      "tring": 1726,
      "ech": 1727,
      "lo": 1728,
      ".\nL": 1729,
      ">\n": 1730,
      "ole": 1731,
      "ther": 1732,
      "iel": 1733,
      "▁car": 1734,
      "▁im": 1735,
      "▁co": 1736,
      "olog": 1737,
      "rig": 1738,
      "▁i": 1739,
      "éd": 1740,
      "ages": 1741,
      "▁diff": 1742,
      "EN": 1743,
      "'t": 1744,
      "::": 1745,
      "▁serv": 1746,
      "▁ph": 1747,
      "▁Com": 1748,
      "IN": 1749,
      "\nR": 1750,
      "ouve": 1751,
      "oth": 1752,
      "▁St": 1753,
      "▁ét": 1754,
      "up": 1755,
      "so": 1756,
      "ix": 1757,
      "▁which": 1758,
      "('": 1759,
      "_s": 1760,
      "tive": 1761,
      "y,": 1762,
      "\nD": 1763,
      "ions": 1764,
      "▁his": 1765,
      "ric": 1766,
      "onne": 1767,
      "▁Il": 1768,
      "ep": 1769,
      "ull": 1770,
      "▁li": 1771,
      "▁Fr": 1772,
      "fin": 1773,
      "ière": 1774,
      "ays": 1775,
      "▁conf": 1776,
      "name": 1777,
      "▁Par": 1778,
      "://": 1779,
      "ci": 1780,
      "▁ins": 1781,
      "own": 1782,
      "ann": 1783,
      "ck": 1784,
      "els": 1785,
      "olu": 1786,
      "▁Q": 1787,
      "iew": 1788,
      "▁their": 1789,
      "alis": 1790,
      "unction": 1791,
      "▁more": 1792,
      "ateur": 1793,
      "▁ter": 1794,
      "iè": 1795,
      "ild": 1796,
      "éra": 1797,
      "▁qu’": 1798,
      "▁they": 1799,
      "gra": 1800,
      "irst": 1801,
      "TI": 1802,
      "▁get": 1803,
      "ink": 1804,
      "▁déc": 1805,
      "▁up": 1806,
      "ree": 1807,
      "▁Les": 1808,
      "▁trans": 1809,
      "a,": 1810,
      "ense": 1811,
      "ft": 1812,
      "ues": 1813,
      "▁Un": 1814,
      "oll": 1815,
      "▁cette": 1816,
      "....": 1817,
      "_c": 1818,
      "él": 1819,
      ".get": 1820,
      "▁eff": 1821,
      "ew": 1822,
      "▁être": 1823,
      "tt": 1824,
      "RE": 1825,
      "▁rel": 1826,
      ".\nA": 1827,
      "▁trav": 1828,
      "bre": 1829,
      "▁form": 1830,
      "row": 1831,
      "▁@": 1832,
      "év": 1833,
      "▁acc": 1834,
      "▁entre": 1835,
      "teur": 1836,
      "ités": 1837,
      "▁prés": 1838,
      "ug": 1839,
      "▁}\n": 1840,
      "ove": 1841,
      "ures": 1842,
      "jet": 1843,
      "▁fait": 1844,
      "to": 1845,
      "}\n": 1846,
      "tern": 1847,
      "ount": 1848,
      "ente": 1849,
      "▁che": 1850,
      "▁bl": 1851,
      "▁prof": 1852,
      "\nT": 1853,
      "ourn": 1854,
      "▁ind": 1855,
      "▁comme": 1856,
      "ry": 1857,
      "▁op": 1858,
      "▁,": 1859,
      "ême": 1860,
      "ature": 1861,
      ".com": 1862,
      "▁Re": 1863,
      "_d": 1864,
      "▁site": 1865,
      "atch": 1866,
      "▁De": 1867,
      "AR": 1868,
      "yn": 1869,
      "▁work": 1870,
      "▁el": 1871,
      "▁import": 1872,
      "▁vo": 1873,
      "▁nom": 1874,
      "\nN": 1875,
      "eth": 1876,
      "</": 1877,
      "▁rem": 1878,
      "ivers": 1879,
      "▁dire": 1880,
      "▁pol": 1881,
      "▁//": 1882,
      "tes": 1883,
      "ery": 1884,
      "fr": 1885,
      "we": 1886,
      "ces": 1887,
      "ient": 1888,
      "ats": 1889,
      "ule": 1890,
      "Re": 1891,
      "▁conc": 1892,
      "▁ju": 1893,
      "▁ann": 1894,
      "▁em": 1895,
      "eng": 1896,
      "be": 1897,
      "\t\t\t": 1898,
      "ticle": 1899,
      ".c": 1900,
      "AN": 1901,
      "alité": 1902,
      "ms": 1903,
      "▁vis": 1904,
      "▁about": 1905,
      "▁bien": 1906,
      "▁time": 1907,
      "ussi": 1908,
      "▁ses": 1909,
      "▁part": 1910,
      "▁tem": 1911,
      "gan": 1912,
      "▁été": 1913,
      "ror": 1914,
      "▁peut": 1915,
      "amp": 1916,
      "▁perm": 1917,
      "▁Mar": 1918,
      "▁tou": 1919,
      "****": 1920,
      "▁parti": 1921,
      "▁Ar": 1922,
      "ves": 1923,
      "Ex": 1924,
      "ains": 1925,
      "ical": 1926,
      "lec": 1927,
      "▁supp": 1928,
      "eur": 1929,
      "type": 1930,
      "▁pass": 1931,
      "\n\n\n": 1932,
      "▁Je": 1933,
      ".\nC": 1934,
      "tra": 1935,
      "▁class": 1936,
      "ource": 1937,
      "▁any": 1938,
      "▁.": 1939,
      "▁first": 1940,
      "oire": 1941,
      "ress": 1942,
      "ish": 1943,
      "ener": 1944,
      "▁utilis": 1945,
      "▁imp": 1946,
      "▁cor": 1947,
      "▁`": 1948,
      "ool": 1949,
      "▁inform": 1950,
      "▁Pro": 1951,
      "▁personn": 1952,
      "its": 1953,
      "pec": 1954,
      "ép": 1955,
      "ww": 1956,
      "▁some": 1957,
      "ouver": 1958,
      "▁also": 1959,
      "tique": 1960,
      "igh": 1961,
      "▁fil": 1962,
      "wo": 1963,
      "▁leur": 1964,
      "e,": 1965,
      "▁my": 1966,
      "ational": 1967,
      "cc": 1968,
      "▁our": 1969,
      "▁there": 1970,
      "▁dev": 1971,
      "ings": 1972,
      "ication": 1973,
      "dition": 1974,
      "▁requ": 1975,
      "▁year": 1976,
      "ner": 1977,
      "▁reg": 1978,
      "oin": 1979,
      "▁qu'": 1980,
      "_m": 1981,
      "▁faire": 1982,
      "ese": 1983,
      "alement": 1984,
      "ative": 1985,
      "onc": 1986,
      "endre": 1987,
      "▁It": 1988,
      "ices": 1989,
      "right": 1990,
      "htt": 1991,
      "az": 1992,
      "ict": 1993,
      "▁sub": 1994,
      "▁si": 1995,
      "▁peu": 1996,
      "▁We": 1997,
      "▁partic": 1998,
      "▁s’": 1999,
      "▁who": 2000,
      "lection": 2001,
      "roup": 2002,
      "St": 2003,
      "▁ont": 2004,
      "▁id": 2005,
      "ield": 2006,
      "iers": 2007,
      "▁ces": 2008,
      "ante": 2009,
      "-m": 2010,
      "tis": 2011,
      "ax": 2012,
      "TE": 2013,
      "bl": 2014,
      "▁cas": 2015,
      "ponse": 2016,
      "▁other": 2017,
      "...\n": 2018,
      "▁its": 2019,
      "====": 2020,
      "cher": 2021,
      "▁rés": 2022,
      "▁been": 2023,
      "▁sou": 2024,
      "▁were": 2025,
      "ates": 2026,
      "ences": 2027,
      "▁commun": 2028,
      "Un": 2029,
      "echn": 2030,
      "▁mo": 2031,
      "▁loc": 2032,
      "]\n": 2033,
      "▁conn": 2034,
      "ém": 2035,
      "a.": 2036,
      "\",\n": 2037,
      "iste": 2038,
      "raph": 2039,
      "▁;": 2040,
      "LE": 2041,
      "igne": 2042,
      "▁when": 2043,
      "text": 2044,
      "▁donn": 2045,
      "▁prem": 2046,
      "ribu": 2047,
      "for": 2048,
      "key": 2049,
      "▁cre": 2050,
      "▁_": 2051,
      "tit": 2052,
      "▁fe": 2053,
      "▁x": 2054,
      "▁had": 2055,
      "\nB": 2056,
      "ick": 2057,
      "IS": 2058,
      "-s": 2059,
      "▁over": 2060,
      "OR": 2061,
      "▁cook": 2062,
      "▁es": 2063,
      "ing,": 2064,
      "-d": 2065,
      "old": 2066,
      "▁her": 2067,
      "▁Al": 2068,
      "▁deux": 2069,
      "ument": 2070,
      "ation,": 2071,
      "▁aussi": 2072,
      "\nV": 2073,
      "▁prov": 2074,
      "ize": 2075,
      "▁même": 2076,
      "▁cou": 2077,
      "ater": 2078,
      "▁vers": 2079,
      "ps://": 2080,
      "▁non": 2081,
      "mand": 2082,
      "``": 2083,
      "))": 2084,
      "ox": 2085,
      "o,": 2086,
      "ext": 2087,
      "▁data": 2088,
      "rent": 2089,
      "fter": 2090,
      "ray": 2091,
      "ception": 2092,
      "▁\n\n": 2093,
      "vers": 2094,
      "▁than": 2095,
      "();\n": 2096,
      "iques": 2097,
      "▁would": 2098,
      "truc": 2099,
      "aine": 2100,
      "Pro": 2101,
      "▁long": 2102,
      "Th": 2103,
      "ger": 2104,
      "\nF": 2105,
      "▁vos": 2106,
      "▁cour": 2107,
      "ause": 2108,
      "▁n’": 2109,
      "▁==": 2110,
      "ator": 2111,
      "▁}\n\n": 2112,
      "ual": 2113,
      "on,": 2114,
      "AL": 2115,
      "ission": 2116,
      ".m": 2117,
      "▁sit": 2118,
      "'est": 2119,
      "acc": 2120,
      "ment,": 2121,
      "▁te": 2122,
      "▁incl": 2123,
      "yp": 2124,
      "▁att": 2125,
      "▁test": 2126,
      "▁into": 2127,
      "led": 2128,
      "▁soci": 2129,
      "▁sans": 2130,
      "▁char": 2131,
      "▁rég": 2132,
      "▁He": 2133,
      "▁d’un": 2134,
      "▁None": 2135,
      "près": 2136,
      "ales": 2137,
      "▁dur": 2138,
      "asse": 2139,
      "▁notre": 2140,
      "▁like": 2141,
      "▁set": 2142,
      "▁dro": 2143,
      "duit": 2144,
      "sp": 2145,
      "read": 2146,
      ".\nS": 2147,
      "▁bec": 2148,
      "▁number": 2149,
      "onction": 2150,
      "▁point": 2151,
      "':": 2152,
      "_p": 2153,
      "ident": 2154,
      "▁only": 2155,
      "cre": 2156,
      "ely": 2157,
      "_l": 2158,
      "ision": 2159,
      "fer": 2160,
      "▁kn": 2161,
      "arn": 2162,
      "ande": 2163,
      "▁fl": 2164,
      "▁ans": 2165,
      "▁gu": 2166,
      "▁br": 2167,
      "▁Tr": 2168,
      "ystem": 2169,
      "▁enc": 2170,
      "inc": 2171,
      "▁di": 2172,
      "very": 2173,
      "ze": 2174,
      "▁gén": 2175,
      "▁propos": 2176,
      "iter": 2177,
      "let": 2178,
      "▁use": 2179,
      "▁cré": 2180,
      "o.": 2181,
      "▁them": 2182,
      "▁tous": 2183,
      "tim": 2184,
      "▁techn": 2185,
      "▁DE": 2186,
      "ake": 2187,
      "UR": 2188,
      "ici": 2189,
      "essage": 2190,
      "▁sign": 2191,
      "▁This": 2192,
      "ople": 2193,
      "ah": 2194,
      "▁cap": 2195,
      "anç": 2196,
      "▁two": 2197,
      "ault": 2198,
      "▁%": 2199,
      "▁need": 2200,
      "été": 2201,
      "isse": 2202,
      "olution": 2203,
      "alse": 2204,
      "▁très": 2205,
      "▁possi": 2206,
      "▁z": 2207,
      "▁jus": 2208,
      "tement": 2209,
      "_f": 2210,
      "dex": 2211,
      "param": 2212,
      "_t": 2213,
      "entre": 2214,
      "ash": 2215,
      "▁what": 2216,
      "▁exp": 2217,
      "add": 2218,
      "Id": 2219,
      "▁name": 2220,
      "▁function": 2221,
      "▁bu": 2222,
      "lient": 2223,
      "(self": 2224,
      "lect": 2225,
      "▁mem": 2226,
      "▁const": 2227,
      "titu": 2228,
      "()\n": 2229,
      "(c": 2230,
      "▁ég": 2231,
      "▁:\n": 2232,
      "Ar": 2233,
      "ables": 2234,
      "AS": 2235,
      "▁Con": 2236,
      ";\r\n": 2237,
      ".\nThe": 2238,
      "fig": 2239,
      "ade": 2240,
      "ing.": 2241,
      ".\nP": 2242,
      "gram": 2243,
      "erc": 2244,
      "▁else": 2245,
      "▁value": 2246,
      "ème": 2247,
      "rop": 2248,
      "ope": 2249,
      "▁produc": 2250,
      "att": 2251,
      "ines": 2252,
      "Name": 2253,
      "▁d’une": 2254,
      "▁env": 2255,
      "opp": 2256,
      "▁pres": 2257,
      "time": 2258,
      "put\n\n": 2259,
      "▁pré": 2260,
      "cription": 2261,
      "▁type": 2262,
      "estion": 2263,
      "▁sal": 2264,
      "this": 2265,
      "br": 2266,
      "ating": 2267,
      "ank": 2268,
      "▁how": 2269,
      "▁result": 2270,
      "▁X": 2271,
      "Con": 2272,
      "ID": 2273,
      "▁main": 2274,
      "AM": 2275,
      "insi": 2276,
      "▁may": 2277,
      "\nJ": 2278,
      "▁fam": 2279,
      "▁bet": 2280,
      "####": 2281,
      "ider": 2282,
      "▁end": 2283,
      "por": 2284,
      "ample": 2285,
      "abil": 2286,
      "ration": 2287,
      "agn": 2288,
      "ars": 2289,
      "▁sous": 2290,
      "ache": 2291,
      "istr": 2292,
      "▁she": 2293,
      "▁Wh": 2294,
      "ied": 2295,
      "ek": 2296,
      "->": 2297,
      "ets": 2298,
      "▁inst": 2299,
      "fér": 2300,
      "▁priv": 2301,
      "▁dep": 2302,
      "ote": 2303,
      "▁\"\"": 2304,
      "y.": 2305,
      "▁bas": 2306,
      "fl": 2307,
      "-c": 2308,
      "▁cert": 2309,
      "IT": 2310,
      "def": 2311,
      "ils": 2312,
      "gl": 2313,
      "als": 2314,
      "▁France": 2315,
      "line": 2316,
      "pte": 2317,
      "gr": 2318,
      "_id": 2319,
      "▁place": 2320,
      "▁fonction": 2321,
      "ene": 2322,
      "ian": 2323,
      "▁Cl": 2324,
      "',\n": 2325,
      "fo": 2326,
      "▁comment": 2327,
      "▁dist": 2328,
      "ubli": 2329,
      "Ch": 2330,
      "uss": 2331,
      "Type": 2332,
      "ton": 2333,
      "enn": 2334,
      "▁d'un": 2335,
      "du": 2336,
      "▁people": 2337,
      "▁cookies": 2338,
      "ances": 2339,
      "lle": 2340,
      "▁log": 2341,
      ");\n\n": 2342,
      "orld": 2343,
      "ular": 2344,
      "▁mes": 2345,
      "▁said": 2346,
      "▁sy": 2347,
      "rie": 2348,
      "{\n": 2349,
      "▁liv": 2350,
      "▁just": 2351,
      "▁tit": 2352,
      "▁—": 2353,
      "odel": 2354,
      "view": 2355,
      "▁;\n": 2356,
      "é,": 2357,
      "▁Pl": 2358,
      "\nLe": 2359,
      "ret": 2360,
      ";\nimport": 2361,
      "ength": 2362,
      "),\n": 2363,
      "rough": 2364,
      "ection": 2365,
      "utilis": 2366,
      "▁met": 2367,
      "▁s'": 2368,
      "ible": 2369,
      "▁add": 2370,
      "],": 2371,
      "▁som": 2372,
      "▁spec": 2373,
      "reat": 2374,
      "day": 2375,
      "atic": 2376,
      "▁rest": 2377,
      "wn": 2378,
      "ager": 2379,
      "String": 2380,
      "['": 2381,
      "▁cal": 2382,
      "▁mont": 2383,
      "----------------": 2384,
      "▁aff": 2385,
      "▁quel": 2386,
      "n't": 2387,
      "endant": 2388,
      "▁should": 2389,
      "ser": 2390,
      "▁lors": 2391,
      "ation.": 2392,
      "sh": 2393,
      "ude": 2394,
      "red": 2395,
      "▁list": 2396,
      "▁Z": 2397,
      "▁cel": 2398,
      "▁elle": 2399,
      "▁resp": 2400,
      "work": 2401,
      "mp": 2402,
      "fore": 2403,
      "▁dou": 2404,
      "ward": 2405,
      "▁mat": 2406,
      "▁>": 2407,
      "rier": 2408,
      "}\n\n": 2409,
      "ises": 2410,
      "ethod": 2411,
      ".com/": 2412,
      ".\nM": 2413,
      "ollow": 2414,
      "▁fac": 2415,
      "reg": 2416,
      "AT": 2417,
      "](": 2418,
      "▁suiv": 2419,
      "ful": 2420,
      "(\n": 2421,
      ".\nI": 2422,
      "▁second": 2423,
      "▁service": 2424,
      "▁nos": 2425,
      "lp": 2426,
      "ket": 2427,
      "ower": 2428,
      "▁sol": 2429,
      "ograph": 2430,
      "TION": 2431,
      "https://": 2432,
      "i,": 2433,
      ".p": 2434,
      "▁lui": 2435,
      "urrent": 2436,
      "Out": 2437,
      "▁Ex": 2438,
      "An": 2439,
      "▁make": 2440,
      "▁back": 2441,
      "▁ainsi": 2442,
      "son": 2443,
      "ançais": 2444,
      "▁également": 2445,
      "ctob": 2446,
      "▁organ": 2447,
      "▁intern": 2448,
      "urn": 2449,
      "AC": 2450,
      "rac": 2451,
      "vez": 2452,
      "▁profession": 2453,
      "pport": 2454,
      "▁contin": 2455,
      "anv": 2456,
      "aient": 2457,
      "▁line": 2458,
      "▁doc": 2459,
      "▁Sh": 2460,
      "ik": 2461,
      "ref": 2462,
      "▁inv": 2463,
      "▁case": 2464,
      "▁c’est": 2465,
      "ieu": 2466,
      "▁men": 2467,
      "▁where": 2468,
      "of": 2469,
      "▁after": 2470,
      "Res": 2471,
      "aint": 2472,
      "cembre": 2473,
      "List": 2474,
      "▁web": 2475,
      "class": 2476,
      "▁sav": 2477,
      "▁gl": 2478,
      "but": 2479,
      "return": 2480,
      "▁most": 2481,
      "▁New": 2482,
      "▁each": 2483,
      "▁these": 2484,
      "log": 2485,
      "riv": 2486,
      "▁dont": 2487,
      "▁through": 2488,
      "▁play": 2489,
      "▁fa": 2490,
      "▁then": 2491,
      "▁vie": 2492,
      "▁mus": 2493,
      "ood": 2494,
      "ler": 2495,
      "ific": 2496,
      "uel": 2497,
      "▁travail": 2498,
      "▁Se": 2499,
      "nement": 2500,
      "▁know": 2501,
      "▁On": 2502,
      ".d": 2503,
      "io": 2504,
      "ût": 2505,
      "und": 2506,
      "cept": 2507,
      "omm": 2508,
      "']": 2509,
      "▁nombre": 2510,
      "▁grand": 2511,
      "▁print": 2512,
      "▁produit": 2513,
      "article": 2514,
      "▁port": 2515,
      "from": 2516,
      "-v": 2517,
      "ateurs": 2518,
      "▁d'une": 2519,
      "▁*/": 2520,
      "SE": 2521,
      "_name": 2522,
      "s\n": 2523,
      "De": 2524,
      "gin": 2525,
      "ml": 2526,
      "ditions": 2527,
      "arch": 2528,
      "orte": 2529,
      "RO": 2530,
      "ital": 2531,
      "aiss": 2532,
      "▁high": 2533,
      "▁dispos": 2534,
      "action": 2535,
      "▁such": 2536,
      "ément": 2537,
      "illet": 2538,
      "▁lib": 2539,
      "▁expl": 2540,
      "_{": 2541,
      "ture": 2542,
      "▁er": 2543,
      "▁For": 2544,
      ".j": 2545,
      ",\"": 2546,
      "uch": 2547,
      "ron": 2548,
      "ask": 2549,
      "ames": 2550,
      "▁n'": 2551,
      "ipe": 2552,
      "ploy": 2553,
      "aw": 2554,
      "▁prop": 2555,
      "▁exper": 2556,
      "UL": 2557,
      "aque": 2558,
      "over": 2559,
      "IC": 2560,
      "prise": 2561,
      "oh": 2562,
      "ers,": 2563,
      "af": 2564,
      "ark": 2565,
      "ouse": 2566,
      "▁avant": 2567,
      "▁≤": 2568,
      "arm": 2569,
      "itt": 2570,
      "▁Ad": 2571,
      "▁nove": 2572,
      "ience": 2573,
      "▁jour": 2574,
      "▁program": 2575,
      "▁L'": 2576,
      "▁fra": 2577,
      "▁novembre": 2578,
      "▁code": 2579,
      "ited": 2580,
      "lication": 2581,
      "ough": 2582,
      "▁look": 2583,
      "▁décembre": 2584,
      "▁où": 2585,
      "\nE": 2586,
      "ondre": 2587,
      "ince": 2588,
      "orn": 2589,
      "rid": 2590,
      "▁follow": 2591,
      "▁could": 2592,
      "▁lég": 2593,
      "▁contr": 2594,
      "▁présent": 2595,
      "e.": 2596,
      "_n": 2597,
      "atis": 2598,
      "▁compr": 2599,
      "▁every": 2600,
      "org": 2601,
      "▁And": 2602,
      "équ": 2603,
      "▁vari": 2604,
      "▁É": 2605,
      "Le": 2606,
      "rois": 2607,
      "\nLes": 2608,
      "▁éc": 2609,
      "oul": 2610,
      "anvier": 2611,
      "▁bo": 2612,
      "▁inte": 2613,
      "▁nouv": 2614,
      "abl": 2615,
      "▁Pour": 2616,
      "iment": 2617,
      "........": 2618,
      "velop": 2619,
      "ie,": 2620,
      "land": 2621,
      "quest": 2622,
      "▁ve": 2623,
      "iens": 2624,
      "▁activ": 2625,
      "▁right": 2626,
      "▁dés": 2627,
      "Val": 2628,
      "▁used": 2629,
      "▁cent": 2630,
      "▁You": 2631,
      "▁well": 2632,
      "\\n": 2633,
      "ôt": 2634,
      "tiques": 2635,
      "ieux": 2636,
      "▁dern": 2637,
      "▁possible": 2638,
      "url": 2639,
      "part": 2640,
      "▁null": 2641,
      "set": 2642,
      "lex": 2643,
      "▁sm": 2644,
      "isc": 2645,
      "▁gra": 2646,
      "iqu": 2647,
      "▁puis": 2648,
      "auc": 2649,
      "▁this.": 2650,
      "isation": 2651,
      "cul": 2652,
      "the": 2653,
      "ocial": 2654,
      ".set": 2655,
      "_b": 2656,
      "êt": 2657,
      "▁temps": 2658,
      "▁way": 2659,
      "IL": 2660,
      "▁help": 2661,
      "ious": 2662,
      "date": 2663,
      "ired": 2664,
      "inter": 2665,
      "▁soit": 2666,
      "▁him": 2667,
      "▁situ": 2668,
      "▁cr": 2669,
      "▁under": 2670,
      "▁préc": 2671,
      "jour": 2672,
      "ison": 2673,
      "▁ren": 2674,
      "ouvez": 2675,
      "▁disc": 2676,
      "arr": 2677,
      "▁plan": 2678,
      "▁read": 2679,
      "▁mal": 2680,
      "ENT": 2681,
      "▁év": 2682,
      "erg": 2683,
      "\n\t": 2684,
      "▁differ": 2685,
      "iness": 2686,
      "-b": 2687,
      "atus": 2688,
      "dit": 2689,
      "▁dit": 2690,
      "ril": 2691,
      "▁now": 2692,
      "▁tri": 2693,
      "anti": 2694,
      "ities": 2695,
      "arge": 2696,
      "▁file": 2697,
      "▁dom": 2698,
      "ET": 2699,
      "Com": 2700,
      "▁process": 2701,
      "Wh": 2702,
      ".\nD": 2703,
      "▁show": 2704,
      "hor": 2705,
      "▁mom": 2706,
      "ots": 2707,
      "▁Ph": 2708,
      "▁mill": 2709,
      "lab": 2710,
      "\n#": 2711,
      "▁dec": 2712,
      "▁htt": 2713,
      "▁contre": 2714,
      "ez": 2715,
      "su": 2716,
      "▁many": 2717,
      "hed": 2718,
      "erm": 2719,
      "▁français": 2720,
      "any": 2721,
      "▁Qu": 2722,
      "ST": 2723,
      "amb": 2724,
      "mble": 2725,
      "al,": 2726,
      "ctobre": 2727,
      "▁If": 2728,
      "▁bel": 2729,
      "▁state": 2730,
      "▁hist": 2731,
      "ute": 2732,
      "aur": 2733,
      "oute": 2734,
      "▁suc": 2735,
      "▁lim": 2736,
      "▁hand": 2737,
      "▁mai": 2738,
      "▁var": 2739,
      "roupe": 2740,
      "))\n": 2741,
      "enu": 2742,
      "▁encore": 2743,
      "Ob": 2744,
      "value": 2745,
      "ervice": 2746,
      "ody": 2747,
      "ulture": 2748,
      "▁janvier": 2749,
      "▁après": 2750,
      "▁find": 2751,
      "ête": 2752,
      "ticles": 2753,
      "ed,": 2754,
      "mber": 2755,
      "ulti": 2756,
      "▁depuis": 2757,
      ".\"": 2758,
      "oud": 2759,
      "▁nouve": 2760,
      "▁pop": 2761,
      "▁rep": 2762,
      "▁very": 2763,
      "▁even": 2764,
      "en,": 2765,
      "(f": 2766,
      "oad": 2767,
      "▁fois": 2768,
      "▁Pr": 2769,
      "▁leurs": 2770,
      "t.": 2771,
      "▁Comm": 2772,
      "▁giv": 2773,
      "▁donc": 2774,
      "ily": 2775,
      "UE": 2776,
      "ptembre": 2777,
      "▁does": 2778,
      "ween": 2779,
      "▁différ": 2780,
      "▁includ": 2781,
      "▁avoir": 2782,
      "alth": 2783,
      "▁compl": 2784,
      "[i": 2785,
      "********": 2786,
      "▁pouvez": 2787,
      "on't": 2788,
      "new": 2789,
      "DE": 2790,
      "▁phot": 2791,
      "▁spéc": 2792,
      "mande": 2793,
      "enne": 2794,
      "▁see": 2795,
      "////": 2796,
      "▁toute": 2797,
      "▁juin": 2798,
      ".\nH": 2799,
      "▁sé": 2800,
      "▁Paris": 2801,
      "▁données": 2802,
      "▁compte": 2803,
      "▁final": 2804,
      "ères": 2805,
      "ée,": 2806,
      "▁run": 2807,
      "velopp": 2808,
      "Cl": 2809,
      "▁hum": 2810,
      "▁ri": 2811,
      "We": 2812,
      "aî": 2813,
      "▁L’": 2814,
      "▁simp": 2815,
      "Data": 2816,
      "▁j’": 2817,
      "agne": 2818,
      "▁start": 2819,
      "▁fem": 2820,
      "▁ref": 2821,
      "▁octobre": 2822,
      "écess": 2823,
      "▁ver": 2824,
      "try": 2825,
      "\">": 2826,
      "▁ret": 2827,
      "_in": 2828,
      "▁mars": 2829,
      "▁peuvent": 2830,
      "je": 2831,
      "ples": 2832,
      "rror": 2833,
      "Qu": 2834,
      "str": 2835,
      "oot": 2836,
      "ateg": 2837,
      "itique": 2838,
      "ey": 2839,
      "hip": 2840,
      "▁...": 2841,
      "var": 2842,
      "▁pouv": 2843,
      "place": 2844,
      "rite": 2845,
      "ension": 2846,
      "yle": 2847,
      "▁||": 2848,
      "▁because": 2849,
      "way": 2850,
      "ant,": 2851,
      "ape": 2852,
      "Tr": 2853,
      "▁monde": 2854,
      "▁Gr": 2855,
      "▁permet": 2856,
      "ération": 2857,
      "alk": 2858,
      "▁**": 2859,
      "▁down": 2860,
      "▁recher": 2861,
      "usiness": 2862,
      "▁stud": 2863,
      "▁moins": 2864,
      "sc": 2865,
      "▁let": 2866,
      "p://": 2867,
      "▁suis": 2868,
      "off": 2869,
      "='": 2870,
      "p.": 2871,
      "▁professionn": 2872,
      "▁él": 2873,
      "-f": 2874,
      "▁septembre": 2875,
      "▁did": 2876,
      "other": 2877,
      "www": 2878,
      "▁mois": 2879,
      "load": 2880,
      "OU": 2881,
      "▁services": 2882,
      "OM": 2883,
      "▁while": 2884,
      "▁ed": 2885,
      "uv": 2886,
      "▁sim": 2887,
      "▁repr": 2888,
      "▁prote": 2889,
      "ife": 2890,
      "entif": 2891,
      "ieurs": 2892,
      "▁Bl": 2893,
      "▁pay": 2894,
      "\nLa": 2895,
      "▁String": 2896,
      "AP": 2897,
      "ross": 2898,
      "EC": 2899,
      "oût": 2900,
      "▁page": 2901,
      "\nI": 2902,
      "▁again": 2903,
      "uer": 2904,
      "▁autres": 2905,
      "id:": 2906,
      "▁imm": 2907,
      "▁Col": 2908,
      "▁tot": 2909,
      "▁between": 2910,
      "\nG": 2911,
      "_st": 2912,
      "▁good": 2913,
      "▁qu’il": 2914,
      "aines": 2915,
      "iron": 2916,
      "arget": 2917,
      "▁change": 2918,
      "chool": 2919,
      "▁max": 2920,
      "▁juillet": 2921,
      "▁support": 2922,
      "isme": 2923,
      "▁nécess": 2924,
      "▁param": 2925,
      "▁void": 2926,
      "cle": 2927,
      "ized": 2928,
      "▁projet": 2929,
      "aly": 2930,
      "tres": 2931,
      "▁Ce": 2932,
      "▁range": 2933,
      "▁sera": 2934,
      "▁system": 2935,
      "▁post": 2936,
      "▁rece": 2937,
      ":\n\n": 2938,
      "▁perform": 2939,
      "(n": 2940,
      "▁Sc": 2941,
      "ches": 2942,
      "▁gener": 2943,
      "re,": 2944,
      ".S": 2945,
      "perty": 2946,
      "========": 2947,
      "acter": 2948,
      "aff": 2949,
      "oup": 2950,
      "Par": 2951,
      "till": 2952,
      "item": 2953,
      "▁day": 2954,
      "ush": 2955,
      "c.": 2956,
      "▁group": 2957,
      "▁po": 2958,
      "▁mé": 2959,
      "era": 2960,
      "aille": 2961,
      "▁toutes": 2962,
      "évrier": 2963,
      "vis": 2964,
      "rim": 2965,
      "rol": 2966,
      "▁conse": 2967,
      "▁déf": 2968,
      "▁prom": 2969,
      "▁true": 2970,
      "vo": 2971,
      "antes": 2972,
      "▁arg": 2973,
      "érie": 2974,
      "(self,": 2975,
      "▁publi": 2976,
      "▁last": 2977,
      "▁gar": 2978,
      "▁before": 2979,
      "indow": 2980,
      "▁actu": 2981,
      "in,": 2982,
      "comp": 2983,
      "itions": 2984,
      "▁fut": 2985,
      "▁)": 2986,
      "(d": 2987,
      "ane": 2988,
      "▁base": 2989,
      "pi": 2990,
      "idé": 2991,
      "-l": 2992,
      "ili": 2993,
      "▁same": 2994,
      "lev": 2995,
      "ers.": 2996,
      "▁Vous": 2997,
      "ght": 2998,
      "▁I'": 2999,
      "▁inc": 3000,
      "ustom": 3001,
      "▁hom": 3002,
      "▁input": 3003,
      "ha": 3004,
      "▁Nous": 3005,
      "incip": 3006,
      "onom": 3007,
      "size": 3008,
      "s:": 3009,
      "earch": 3010,
      "▁suite": 3011,
      "▁avril": 3012,
      "▁moment": 3013,
      "▁réalis": 3014,
      "elon": 3015,
      "ides": 3016,
      "wh": 3017,
      "▁world": 3018,
      "jours": 3019,
      "▁nature": 3020,
      "back": 3021,
      "▁own": 3022,
      "illes": 3023,
      "ends": 3024,
      "▁oper": 3025,
      "▁being": 3026,
      "uses": 3027,
      "▁ligne": 3028,
      "minist": 3029,
      "eter": 3030,
      "▁était": 3031,
      "▁Be": 3032,
      "▁information": 3033,
      "▁typ": 3034,
      "▁vol": 3035,
      "orth": 3036,
      "▁here": 3037,
      "')\n": 3038,
      "book": 3039,
      "▁bon": 3040,
      "ment.": 3041,
      "▁alors": 3042,
      "tical": 3043,
      "écur": 3044,
      "iles": 3045,
      "-M": 3046,
      "resse": 3047,
      "ister": 3048,
      "rem": 3049,
      "\nH": 3050,
      "teurs": 3051,
      "\nO": 3052,
      "épondre": 3053,
      "vention": 3054,
      "cript": 3055,
      "▁social": 3056,
      ".\nN": 3057,
      "▁eur": 3058,
      "play": 3059,
      "▁question": 3060,
      "wit": 3061,
      "▁made": 3062,
      "▁bre": 3063,
      "▁équ": 3064,
      "lectr": 3065,
      "▁Si": 3066,
      "ason": 3067,
      "▁using": 3068,
      "▁develop": 3069,
      "{\\": 3070,
      "▁proc": 3071,
      "Error": 3072,
      "(m": 3073,
      "rag": 3074,
      "▁lead": 3075,
      "tice": 3076,
      "ites": 3077,
      "ed.": 3078,
      "▁Res": 3079,
      "▁fond": 3080,
      "▁ess": 3081,
      "▁--": 3082,
      "▁med": 3083,
      "},": 3084,
      "],\n": 3085,
      "▁ris": 3086,
      "▁it's": 3087,
      "ties": 3088,
      "▁savoir": 3089,
      "▁droit": 3090,
      "▁Car": 3091,
      "'\n": 3092,
      "ules": 3093,
      "▁want": 3094,
      "igin": 3095,
      ".f": 3096,
      "bil": 3097,
      "\")\n": 3098,
      "ren": 3099,
      "an,": 3100,
      "▁access": 3101,
      "èg": 3102,
      "word": 3103,
      "dd": 3104,
      "▁message": 3105,
      "▁think": 3106,
      "\")": 3107,
      "▁those": 3108,
      "umn": 3109,
      "▁date": 3110,
      "ulation": 3111,
      "▁eng": 3112,
      "ta": 3113,
      "▁meille": 3114,
      "▁cli": 3115,
      "▁Eur": 3116,
      "▁€": 3117,
      "élé": 3118,
      "atég": 3119,
      "▁much": 3120,
      "-vous": 3121,
      "▁Is": 3122,
      "ières": 3123,
      "▁call": 3124,
      "atique": 3125,
      "▁demand": 3126,
      "pond": 3127,
      "▁vi": 3128,
      "s/": 3129,
      "-p": 3130,
      "▁occ": 3131,
      "ivid": 3132,
      "▁»,": 3133,
      "ché": 3134,
      "'re": 3135,
      "pace": 3136,
      "▁modif": 3137,
      "To": 3138,
      "▁take": 3139,
      "▁ke": 3140,
      "▁février": 3141,
      "ogle": 3142,
      "▁afin": 3143,
      "rait": 3144,
      ".,": 3145,
      "▁développ": 3146,
      "\nEn": 3147,
      "jec": 3148,
      "éro": 3149,
      "meric": 3150,
      "▁premier": 3151,
      "▁direct": 3152,
      ".\n\"": 3153,
      "imum": 3154,
      "▁cri": 3155,
      "pression": 3156,
      "oph": 3157,
      "\");\n": 3158,
      "Cont": 3159,
      ".\nB": 3160,
      "ning": 3161,
      "▁years": 3162,
      "▁ple": 3163,
      "▁Et": 3164,
      "▁enf": 3165,
      "go": 3166,
      "▁und": 3167,
      "▁try": 3168,
      "_type": 3169,
      "print": 3170,
      "▁plusieurs": 3171,
      "▁private": 3172,
      "inst": 3173,
      "et,": 3174,
      "▁dém": 3175,
      "by": 3176,
      "atur": 3177,
      "ever": 3178,
      "ather": 3179,
      "▁forum": 3180,
      "T_": 3181,
      "▁concern": 3182,
      "clus": 3183,
      "const": 3184,
      "▁super": 3185,
      "▁n’est": 3186,
      "▁As": 3187,
      "▁génér": 3188,
      "▁princip": 3189,
      "▁Des": 3190,
      "rain": 3191,
      "agement": 3192,
      "atif": 3193,
      "ories": 3194,
      "▁design": 3195,
      "cent": 3196,
      "')": 3197,
      "\nCom": 3198,
      "opy": 3199,
      "▁moy": 3200,
      "▁août": 3201,
      "▁nav": 3202,
      "▁trois": 3203,
      "▁*/\n": 3204,
      "uff": 3205,
      ".\nF": 3206,
      "ement": 3207,
      "ared": 3208,
      "util": 3209,
      "▁must": 3210,
      "▁Chr": 3211,
      "te,": 3212,
      "autres": 3213,
      "td": 3214,
      "lig": 3215,
      "▁chang": 3216,
      "▁key": 3217,
      "▁found": 3218,
      "▁chaque": 3219,
      "▁conditions": 3220,
      "▁demande": 3221,
      "Output\n\n": 3222,
      "idth": 3223,
      "▁current": 3224,
      "▁Or": 3225,
      "face": 3226,
      "▁jou": 3227,
      "▁head": 3228,
      "\nIn": 3229,
      "▁child": 3230,
      "▁bes": 3231,
      "bers": 3232,
      "▁doit": 3233,
      "▁model": 3234,
      "ôle": 3235,
      "public": 3236,
      "▁sing": 3237,
      "EL": 3238,
      "▁person": 3239,
      "▁coun": 3240,
      "ream": 3241,
      "Input\n\n": 3242,
      "-n": 3243,
      "EM": 3244,
      "ased": 3245,
      "CH": 3246,
      "▁partie": 3247,
      "▁prix": 3248,
      "ources": 3249,
      "ellement": 3250,
      "▁both": 3251,
      "▁equ": 3252,
      "}}": 3253,
      "▁comb": 3254,
      "▁week": 3255,
      "test": 3256,
      "▁dép": 3257,
      "ality": 3258,
      "▁different": 3259,
      "▁bi": 3260,
      "▁Br": 3261,
      "input": 3262,
      "▁top": 3263,
      "▁order": 3264,
      "▁l'article": 3265,
      "i.": 3266,
      "▁table": 3267,
      "▁But": 3268,
      "AD": 3269,
      "▁mil": 3270,
      "▁sk": 3271,
      "Col": 3272,
      "▁financ": 3273,
      "▁groupe": 3274,
      "▁open": 3275,
      "▁Gu": 3276,
      "rage": 3277,
      "rir": 3278,
      "▁lang": 3279,
      "amment": 3280,
      "▁Saint": 3281,
      "ium": 3282,
      "▁important": 3283,
      "▁best": 3284,
      "▁cours": 3285,
      "head": 3286,
      "▁stock": 3287,
      "▁Can": 3288,
      "user": 3289,
      "erci": 3290,
      "ym": 3291,
      "formation": 3292,
      "▁pays": 3293,
      "▁pu": 3294,
      "▁toujours": 3295,
      "g.": 3296,
      "outh": 3297,
      "▁static": 3298,
      "uf": 3299,
      "conom": 3300,
      "age,": 3301,
      "▁associ": 3302,
      "rix": 3303,
      "▁appro": 3304,
      "itement": 3305,
      "SI": 3306,
      "bo": 3307,
      "AG": 3308,
      "env": 3309,
      "ent,": 3310,
      "\",\"": 3311,
      "aster": 3312,
      "▁fact": 3313,
      "▁next": 3314,
      "ination": 3315,
      "▁tu": 3316,
      ".\nLe": 3317,
      "▁Man": 3318,
      "▁example": 3319,
      "▁méd": 3320,
      "```": 3321,
      "(cid:": 3322,
      "▁direc": 3323,
      "udi": 3324,
      "▁mak": 3325,
      "icro": 3326,
      "oires": 3327,
      "[i]": 3328,
      "▁ç": 3329,
      "otes": 3330,
      "her": 3331,
      "ender": 3332,
      "ène": 3333,
      "▁peti": 3334,
      "▁Mon": 3335,
      "▁__": 3336,
      "▁three": 3337,
      "▁dél": 3338,
      "ector": 3339,
      "yl": 3340,
      "▁M.": 3341,
      "▁ils": 3342,
      "▁bro": 3343,
      "▁writ": 3344,
      "[\"": 3345,
      "▁Pol": 3346,
      "▁journ": 3347,
      "▁particul": 3348,
      "▁request": 3349,
      "▁Mais": 3350,
      "▁dest": 3351,
      "iche": 3352,
      "▁tak": 3353,
      "AB": 3354,
      "▁sécur": 3355,
      "iné": 3356,
      "Exception": 3357,
      "▁bou": 3358,
      "dic": 3359,
      "▁rev": 3360,
      "▁collec": 3361,
      "▁sais": 3362,
      "plit": 3363,
      "▁false": 3364,
      "▁qu'il": 3365,
      "is,": 3366,
      "obil": 3367,
      "append": 3368,
      "▁effect": 3369,
      "▁recherche": 3370,
      "▁cet": 3371,
      "▁don't": 3372,
      "enir": 3373,
      "raw": 3374,
      "uments": 3375,
      "rec": 3376,
      "oss": 3377,
      "t,": 3378,
      "abit": 3379,
      "▁exem": 3380,
      "▁build": 3381,
      "ina": 3382,
      "anche": 3383,
      "▁jusqu": 3384,
      "▁société": 3385,
      "▁great": 3386,
      "iversity": 3387,
      "férences": 3388,
      "iser": 3389,
      "▁team": 3390,
      "▁ép": 3391,
      "és,": 3392,
      "quer": 3393,
      "ram": 3394,
      "ness": 3395,
      "▁ste": 3396,
      "▁given": 3397,
      "▁Americ": 3398,
      "▁document": 3399,
      "aissance": 3400,
      "éf": 3401,
      "esse": 3402,
      "▁personnes": 3403,
      "▁say": 3404,
      "▁sem": 3405,
      "▁accord": 3406,
      "jor": 3407,
      "▁=>": 3408,
      "duction": 3409,
      "identi": 3410,
      "▁\"\"\"\n": 3411,
      "▁informations": 3412,
      "▁initi": 3413,
      "etwork": 3414,
      "rique": 3415,
      "rez": 3416,
      "comm": 3417,
      "▁film": 3418,
      "▁autre": 3419,
      "oix": 3420,
      "ensi": 3421,
      "\n|": 3422,
      "cep": 3423,
      "▁method": 3424,
      "▁origin": 3425,
      "▁cir": 3426,
      "ware": 3427,
      "CE": 3428,
      "Value": 3429,
      "▁unique": 3430,
      "▁contains": 3431,
      "▁pra": 3432,
      "▁App": 3433,
      "▁business": 3434,
      "r.": 3435,
      "des": 3436,
      "ched": 3437,
      "▁sl": 3438,
      ".\nTh": 3439,
      "-t": 3440,
      "-S": 3441,
      "▁sex": 3442,
      "www.": 3443,
      "▁Intern": 3444,
      "OL": 3445,
      "▁cle": 3446,
      "▁local": 3447,
      ".\nR": 3448,
      "▁client": 3449,
      "▁Elle": 3450,
      "▁version": 3451,
      "▁stand": 3452,
      "▁première": 3453,
      "▁All": 3454,
      "><": 3455,
      "ird": 3456,
      "AME": 3457,
      "▁quelques": 3458,
      "▁fourn": 3459,
      "this.": 3460,
      "▁},\n": 3461,
      "▁enti": 3462,
      "II": 3463,
      "êtes": 3464,
      "irm": 3465,
      "On": 3466,
      "truction": 3467,
      "▁contra": 3468,
      "\\u": 3469,
      "▁string": 3470,
      "▁(c": 3471,
      "RI": 3472,
      "▁multi": 3473,
      "etting": 3474,
      "!!": 3475,
      "le,": 3476,
      "▁article": 3477,
      "eff": 3478,
      "▁L.": 3479,
      "▁Cons": 3480,
      "▁book": 3481,
      "▁cad": 3482,
      "▁arr": 3483,
      "▁IN": 3484,
      "**\n": 3485,
      "-P": 3486,
      "ésent": 3487,
      "US": 3488,
      "▁home": 3489,
      "Object": 3490,
      "ubl": 3491,
      "▁faut": 3492,
      "▁allow": 3493,
      "▁pan": 3494,
      "▁exist": 3495,
      "▁rap": 3496,
      "▁pat": 3497,
      "▁tim": 3498,
      "▁sujet": 3499,
      "config": 3500,
      "aces": 3501,
      "é.": 3502,
      "____": 3503,
      "▁prév": 3504,
      "▁True": 3505,
      "▁Ac": 3506,
      "▁syst": 3507,
      "OT": 3508,
      "▁Su": 3509,
      "lete": 3510,
      "rom": 3511,
      "▁particip": 3512,
      "ung": 3513,
      "gg": 3514,
      "entes": 3515,
      "▁ev": 3516,
      "▁still": 3517,
      "▁jav": 3518,
      "▁produits": 3519,
      "ization": 3520,
      "tor": 3521,
      "ished": 3522,
      "▁chez": 3523,
      "odes": 3524,
      "nes": 3525,
      "▁LA": 3526,
      "lick": 3527,
      "press": 3528,
      "▁inf": 3529,
      "](https://": 3530,
      "istre": 3531,
      "▁proble": 3532,
      "div": 3533,
      "oit": 3534,
      "▁)\n": 3535,
      "▁lab": 3536,
      "▁struc": 3537,
      "roll": 3538,
      "▁incre": 3539,
      "less": 3540,
      "gment": 3541,
      "▁avez": 3542,
      "▁tour": 3543,
      "jou": 3544,
      "▁during": 3545,
      "▁n°": 3546,
      "▁cela": 3547,
      "▁</": 3548,
      "ailable": 3549,
      "▁No": 3550,
      "-B": 3551,
      "▁Cont": 3552,
      "ior": 3553,
      "ved": 3554,
      "ième": 3555,
      "ienne": 3556,
      "▁c'est": 3557,
      "math": 3558,
      "▁Une": 3559,
      "arly": 3560,
      "el,": 3561,
      "La": 3562,
      ").\n": 3563,
      "▁large": 3564,
      ")(cid:": 3565,
      "ails": 3566,
      "éli": 3567,
      "):": 3568,
      "▁US": 3569,
      "▁!=": 3570,
      "▁event": 3571,
      "▁exc": 3572,
      "▁field": 3573,
      "▁technolog": 3574,
      "▁around": 3575,
      "bres": 3576,
      "▁camp": 3577,
      "aucoup": 3578,
      "iller": 3579,
      "▁project": 3580,
      "▁ext": 3581,
      "ency": 3582,
      "ks": 3583,
      "ATION": 3584,
      "▁path": 3585,
      "▁check": 3586,
      "reate": 3587,
      "\"]": 3588,
      "o-": 3589,
      "ism": 3590,
      "▁mise": 3591,
      "▁user": 3592,
      "Im": 3593,
      "▁sor": 3594,
      "aud": 3595,
      "z-vous": 3596,
      "▁vra": 3597,
      "▁rapport": 3598,
      "rame": 3599,
      "UN": 3600,
      "▁lieu": 3601,
      "▁following": 3602,
      "ine,": 3603,
      "ott": 3604,
      "umber": 3605,
      "bles": 3606,
      "uration": 3607,
      "alités": 3608,
      "▁ça": 3609,
      "▁word": 3610,
      "▁permett": 3611,
      "▁respons": 3612,
      "++": 3613,
      "tionn": 3614,
      "▁(s": 3615,
      "\nThe": 3616,
      "▁jours": 3617,
      "▁avait": 3618,
      "▁market": 3619,
      "▁position": 3620,
      "▁Sp": 3621,
      "omb": 3622,
      "col": 3623,
      "▁nation": 3624,
      "ED": 3625,
      "▁navig": 3626,
      "▁train": 3627,
      ");": 3628,
      "▁auc": 3629,
      "▁create": 3630,
      "▁nouveau": 3631,
      "avor": 3632,
      "▁syn": 3633,
      "anté": 3634,
      "▁fix": 3635,
      "View": 3636,
      "(self.": 3637,
      "\\\n": 3638,
      "▁config": 3639,
      "▁Web": 3640,
      "▁$\\": 3641,
      "ways": 3642,
      "▁nouvelle": 3643,
      "ohn": 3644,
      "().": 3645,
      "(p": 3646,
      "▁compos": 3647,
      "version": 3648,
      "ié": 3649,
      "▁loi": 3650,
      ".\nLes": 3651,
      "App": 3652,
      "▁nive": 3653,
      "▁game": 3654,
      "ance,": 3655,
      "ards": 3656,
      "▁politique": 3657,
      "▁employ": 3658,
      "list": 3659,
      "▁care": 3660,
      "serv": 3661,
      "▁install": 3662,
      "▁four": 3663,
      "▁cro": 3664,
      "▁mess": 3665,
      "▁individ": 3666,
      "obal": 3667,
      "sy": 3668,
      "▁object": 3669,
      "▁diffic": 3670,
      "▁How": 3671,
      "▁pendant": 3672,
      "ULL": 3673,
      "ics": 3674,
      "▁Ass": 3675,
      "▁She": 3676,
      "▁month": 3677,
      "########": 3678,
      "mi": 3679,
      "ump": 3680,
      "Al": 3681,
      "▁default": 3682,
      "at,": 3683,
      "data": 3684,
      "urg": 3685,
      "▁Go": 3686,
      "▁view": 3687,
      "▁bar": 3688,
      "▁\"\"\"": 3689,
      "jà": 3690,
      "▁face": 3691,
      "ustr": 3692,
      "aire,": 3693,
      "▁titre": 3694,
      ".\nT": 3695,
      ".\nJ": 3696,
      "tain": 3697,
      "▁Aut": 3698,
      "▁Jean": 3699,
      "▁souv": 3700,
      "ale,": 3701,
      "▁selon": 3702,
      "▁without": 3703,
      "▁&&": 3704,
      "roid": 3705,
      "ende": 3706,
      "▁qualité": 3707,
      "da": 3708,
      "▁parf": 3709,
      "_g": 3710,
      "anger": 3711,
      "▁l’h": 3712,
      "▁beaucoup": 3713,
      "resent": 3714,
      "▁+=": 3715,
      "ossi": 3716,
      "NAME": 3717,
      "tien": 3718,
      "▁anim": 3719,
      "incl": 3720,
      "▁mov": 3721,
      "file": 3722,
      "\n-": 3723,
      "aul": 3724,
      "ique,": 3725,
      "▁offic": 3726,
      "éb": 3727,
      "▁Val": 3728,
      "▁really": 3729,
      "▁There": 3730,
      "▁péri": 3731,
      "Se": 3732,
      "ly,": 3733,
      "▁région": 3734,
      "▁sus": 3735,
      "eau": 3736,
      "▁text": 3737,
      "tifs": 3738,
      "▁Im": 3739,
      "ros": 3740,
      "hic": 3741,
      "Ac": 3742,
      "▁At": 3743,
      "▁report": 3744,
      "▁renc": 3745,
      "html": 3746,
      "▁notamment": 3747,
      "▁cher": 3748,
      "../": 3749,
      "tics": 3750,
      "▁iss": 3751,
      "d::": 3752,
      "erver": 3753,
      "▁div": 3754,
      "▁mot": 3755,
      "▁break": 3756,
      ".\nIn": 3757,
      "▁Fl": 3758,
      "ribution": 3759,
      "▁articles": 3760,
      "));\n": 3761,
      "▁Dans": 3762,
      "▁going": 3763,
      "_re": 3764,
      "Or": 3765,
      "opé": 3766,
      "▁Au": 3767,
      "ety": 3768,
      "▁->": 3769,
      "occ": 3770,
      "yth": 3771,
      "▁level": 3772,
      "\nfrom": 3773,
      "IR": 3774,
      "▁voir": 3775,
      "Text": 3776,
      "itive": 3777,
      "_C": 3778,
      "\t\t\t\t\t": 3779,
      "He": 3780,
      "▁national": 3781,
      "Test": 3782,
      "▁record": 3783,
      "ministr": 3784,
      "valu": 3785,
      "\r\n\r\n": 3786,
      "code": 3787,
      "▁temp": 3788,
      "▁sécurité": 3789,
      "▁l’ex": 3790,
      "▁mag": 3791,
      "icense": 3792,
      "▁abs": 3793,
      "us,": 3794,
      "▁Pe": 3795,
      "tific": 3796,
      "ithub": 3797,
      "ée.": 3798,
      "reen": 3799,
      "alys": 3800,
      "erve": 3801,
      "vern": 3802,
      ".\nV": 3803,
      "not": 3804,
      "▁défin": 3805,
      "▁cho": 3806,
      "ones": 3807,
      "ride": 3808,
      "mbl": 3809,
      "▁small": 3810,
      "▁va": 3811,
      "▁charge": 3812,
      "▁including": 3813,
      "entr": 3814,
      "▁pur": 3815,
      "termin": 3816,
      "▁quand": 3817,
      "my": 3818,
      "▁litt": 3819,
      "order": 3820,
      "▁major": 3821,
      "▁identif": 3822,
      "ference": 3823,
      "idence": 3824,
      "atives": 3825,
      "▁else:\n": 3826,
      "max": 3827,
      "▁grande": 3828,
      "alif": 3829,
      "▁sum": 3830,
      "▁voy": 3831,
      ".\nEn": 3832,
      "istoire": 3833,
      "▁autom": 3834,
      "▁(C": 3835,
      "/s": 3836,
      "▁ville": 3837,
      "▁style": 3838,
      "▁déjà": 3839,
      "-de": 3840,
      "oman": 3841,
      "▁They": 3842,
      "OS": 3843,
      "quoi": 3844,
      "▁salari": 3845,
      "activ": 3846,
      "on.": 3847,
      "▁bén": 3848,
      "fe": 3849,
      "al.": 3850,
      "▁appar": 3851,
      ".\nLa": 3852,
      "ided": 3853,
      "▁norm": 3854,
      "▁C’est": 3855,
      "▁option": 3856,
      "By": 3857,
      "uelle": 3858,
      "▁Tra": 3859,
      "▁response": 3860,
      "rc": 3861,
      "▁partir": 3862,
      "▁pot": 3863,
      "▁ord": 3864,
      "aleur": 3865,
      "lease": 3866,
      "▁To": 3867,
      "▁happ": 3868,
      "▁source": 3869,
      "▁Min": 3870,
      "▁l'ex": 3871,
      "▁action": 3872,
      "OC": 3873,
      "UT": 3874,
      "▁school": 3875,
      "▁law": 3876,
      "image": 3877,
      "respond": 3878,
      "onde": 3879,
      "mod": 3880,
      "yd": 3881,
      "].": 3882,
      "Get": 3883,
      "▁applic": 3884,
      "urity": 3885,
      "▁custom": 3886,
      "▁real": 3887,
      "▁personne": 3888,
      "▁grat": 3889,
      "oken": 3890,
      "ball": 3891,
      "},\n": 3892,
      "met": 3893,
      "ability": 3894,
      "▁aur": 3895,
      "▁généra": 3896,
      "▁fri": 3897,
      "tudi": 3898,
      "(t": 3899,
      "▁dim": 3900,
      "▁life": 3901,
      "▁mis": 3902,
      "idd": 3903,
      "▁match": 3904,
      "▁résult": 3905,
      "aim": 3906,
      "nex": 3907,
      "▁culture": 3908,
      "leur": 3909,
      "cal": 3910,
      "());\n": 3911,
      "▁put": 3912,
      "ubs": 3913,
      "érer": 3914,
      "ierre": 3915,
      "loat": 3916,
      "▁probl": 3917,
      "▁tex": 3918,
      "ING": 3919,
      "▁ET": 3920,
      "▁contact": 3921,
      "(x": 3922,
      "uck": 3923,
      "▁trouver": 3924,
      "endu": 3925,
      "-C": 3926,
      "▁None:\n": 3927,
      "(),": 3928,
      "init": 3929,
      "vious": 3930,
      "édi": 3931,
      "tir": 3932,
      "▁https://": 3933,
      "▁Cor": 3934,
      "▁single": 3935,
      "▁left": 3936,
      "▁pouvoir": 3937,
      "icy": 3938,
      "ies,": 3939,
      "erst": 3940,
      "▁dispon": 3941,
      "▁Av": 3942,
      "File": 3943,
      "loc": 3944,
      "▁success": 3945,
      "irect": 3946,
      "onnement": 3947,
      "ran": 3948,
      ";\n\t": 3949,
      "hui": 3950,
      "venir": 3951,
      "For": 3952,
      "▁health": 3953,
      "▁self": 3954,
      "ue,": 3955,
      "Pl": 3956,
      "ackage": 3957,
      "▁entrepr": 3958,
      "function": 3959,
      "','": 3960,
      "▁size": 3961,
      "jourd": 3962,
      "èmes": 3963,
      "\nPour": 3964,
      "▁cell": 3965,
      "▁eas": 3966,
      "ges": 3967,
      "▁formation": 3968,
      "▁available": 3969,
      "▁CO": 3970,
      "▁learn": 3971,
      "atures": 3972,
      "asion": 3973,
      "github": 3974,
      "▁inté": 3975,
      "▁since": 3976,
      "▁celui": 3977,
      "obile": 3978,
      "edi": 3979,
      "http://": 3980,
      "▁del": 3981,
      "api": 3982,
      "▁total": 3983,
      "▁Char": 3984,
      "▁El": 3985,
      "pect": 3986,
      "▁viol": 3987,
      "ure,": 3988,
      "uary": 3989,
      "warg": 3990,
      "▁Ab": 3991,
      "ries": 3992,
      "▁extra": 3993,
      "ony": 3994,
      "tist": 3995,
      "▁<<": 3996,
      "▁environ": 3997,
      "▁gen": 3998,
      "▁leg": 3999,
      "ru": 4000,
      "▁suff": 4001,
      "▁CON": 4002,
      "aime": 4003,
      "ync": 4004,
      "ribute": 4005,
      "▁old": 4006,
      "itor": 4007,
      "error": 4008,
      "State": 4009,
      "ulaire": 4010,
      "Time": 4011,
      "▁dat": 4012,
      "▁few": 4013,
      "▁fer": 4014,
      "(self):\n": 4015,
      "index": 4016,
      "▁University": 4017,
      "▁représent": 4018,
      "uil": 4019,
      "▁Me": 4020,
      "▁command": 4021,
      "▁application": 4022,
      ").\n\n": 4023,
      "▁So": 4024,
      "▁pati": 4025,
      "ql": 4026,
      "▁rése": 4027,
      "_h": 4028,
      "▁require": 4029,
      "\nAr": 4030,
      "issions": 4031,
      "▁Ob": 4032,
      "utilisation": 4033,
      "cont": 4034,
      "aving": 4035,
      "▁j’ai": 4036,
      "▁ec": 4037,
      "utes": 4038,
      "▁territ": 4039,
      "▁chois": 4040,
      "▁niveau": 4041,
      "oles": 4042,
      "omen": 4043,
      "▁consider": 4044,
      "ists": 4045,
      "▁Che": 4046,
      "▁oblig": 4047,
      "me,": 4048,
      "tention": 4049,
      "▁règ": 4050,
      "▁regard": 4051,
      "▁production": 4052,
      "abilité": 4053,
      "erie": 4054,
      "▁blog": 4055,
      "tez": 4056,
      "IM": 4057,
      "ologie": 4058,
      "▁civ": 4059,
      "▁Cette": 4060,
      "▁sens": 4061,
      "▁conv": 4062,
      "acebook": 4063,
      "▁against": 4064,
      "▁count": 4065,
      "Config": 4066,
      "You": 4067,
      "\nRépondre": 4068,
      "_i": 4069,
      "▁exemple": 4070,
      "▁esp": 4071,
      "▁image": 4072,
      "▁pa": 4073,
      "(int": 4074,
      "▁free": 4075,
      "éric": 4076,
      "▁simple": 4077,
      "oration": 4078,
      "valid": 4079,
      "ament": 4080,
      "={": 4081,
      "▁moi": 4082,
      "▁tant": 4083,
      "issement": 4084,
      "▁error": 4085,
      "▁rapp": 4086,
      "nov": 4087,
      "itez": 4088,
      "▁rou": 4089,
      "▁j'": 4090,
      "df": 4091,
      "▁années": 4092,
      "▁certain": 4093,
      "tie": 4094,
      "\".": 4095,
      "rière": 4096,
      "▁content": 4097,
      "▁caract": 4098,
      "equ": 4099,
      "ever,": 4100,
      "-L": 4101,
      "())\n": 4102,
      "ename": 4103,
      "▁rép": 4104,
      "▁pap": 4105,
      "▁décl": 4106,
      "orts": 4107,
      "▁contain": 4108,
      "Item": 4109,
      "▁prendre": 4110,
      "ives": 4111,
      "-ci": 4112,
      "▁correspond": 4113,
      "tex": 4114,
      "▁Ag": 4115,
      ".\nE": 4116,
      "▁self._": 4117,
      "▁siè": 4118,
      "udes": 4119,
      "wer": 4120,
      "tat": 4121,
      "empl": 4122,
      "▁lat": 4123,
      "▁fig": 4124,
      "▁addition": 4125,
      "▁cost": 4126,
      "▁spe": 4127,
      "▁déb": 4128,
      "▁another": 4129,
      "org/": 4130,
      "▁charg": 4131,
      "utilisateur": 4132,
      "tures": 4133,
      "ographie": 4134,
      "None": 4135,
      ".h": 4136,
      "fil": 4137,
      "▁Ins": 4138,
      "érience": 4139,
      "▁der": 4140,
      "▁cur": 4141,
      "▁ceux": 4142,
      "▁present": 4143,
      "▁turn": 4144,
      "ting": 4145,
      "▁cand": 4146,
      "▁govern": 4147,
      "▁Am": 4148,
      "▁always": 4149,
      "▁assert": 4150,
      "▁May": 4151,
      "\nComment": 4152,
      "▁points": 4153,
      "▁cadre": 4154,
      "Key": 4155,
      "\n\n\nOutput\n\n": 4156,
      "▁throw": 4157,
      "ething": 4158,
      "▁Europe": 4159,
      "isé": 4160,
      "Set": 4161,
      "▁ici": 4162,
      "▁mach": 4163,
      "rive": 4164,
      "(e": 4165,
      "err": 4166,
      "site": 4167,
      "▁faç": 4168,
      "ibles": 4169,
      "▁petit": 4170,
      "amples": 4171,
      "▁John": 4172,
      "▁Bar": 4173,
      "IG": 4174,
      "▁big": 4175,
      "Field": 4176,
      "lements": 4177,
      "_data": 4178,
      "▁avons": 4179,
      "ada": 4180,
      "▁ide": 4181,
      ".\t": 4182,
      "èle": 4183,
      "▁air": 4184,
      "▁power": 4185,
      "▁LE": 4186,
      "gress": 4187,
      "▁rapide": 4188,
      "▁Ge": 4189,
      "▁prob": 4190,
      "................": 4191,
      "itaire": 4192,
      "ential": 4193,
      "FF": 4194,
      "istes": 4195,
      "\nCh": 4196,
      "âce": 4197,
      "▁valid": 4198,
      "▁économ": 4199,
      "_r": 4200,
      "string": 4201,
      "▁trop": 4202,
      "▁color": 4203,
      "▁via": 4204,
      "▁integer": 4205,
      "▁ni": 4206,
      ".C": 4207,
      "▁ense": 4208,
      "eters": 4209,
      "▁move": 4210,
      "▁mainten": 4211,
      "▁passe": 4212,
      "▁europé": 4213,
      "length": 4214,
      "net": 4215,
      "▁continue": 4216,
      "^{": 4217,
      "position": 4218,
      "Request": 4219,
      "edia": 4220,
      "▁vidé": 4221,
      "▁continu": 4222,
      "bb": 4223,
      "▁*\n": 4224,
      "\nJe": 4225,
      "trans": 4226,
      "▁dig": 4227,
      "▁scien": 4228,
      "ivre": 4229,
      "▁within": 4230,
      "▁vide": 4231,
      "HE": 4232,
      "▁better": 4233,
      "mo": 4234,
      "▁course": 4235,
      "▁cul": 4236,
      "▁adv": 4237,
      "▁lot": 4238,
      "\"\"": 4239,
      "▁util": 4240,
      "▁got": 4241,
      "▁dr": 4242,
      "▁full": 4243,
      "_P": 4244,
      "pected": 4245,
      "▁come": 4246,
      "▁besoin": 4247,
      "Op": 4248,
      "▁n'est": 4249,
      "▁(d": 4250,
      "format": 4251,
      "▁Coun": 4252,
      "▁autor": 4253,
      "▁emp": 4254,
      "▁grow": 4255,
      "▁font": 4256,
      "estions": 4257,
      "ending": 4258,
      "iction": 4259,
      "erre": 4260,
      "witter": 4261,
      "▁cause": 4262,
      "▁cer": 4263,
      "ification": 4264,
      "▁target": 4265,
      "ids": 4266,
      "▁“": 4267,
      "▁bénéf": 4268,
      "ced": 4269,
      "tig": 4270,
      "▁mettre": 4271,
      "▁protection": 4272,
      "▁Ne": 4273,
      "▁droits": 4274,
      "▁favor": 4275,
      "result": 4276,
      "as,": 4277,
      "▁administ": 4278,
      "ley": 4279,
      "ier,": 4280,
      "œuv": 4281,
      "As": 4282,
      "enant": 4283,
      "▁télé": 4284,
      "gers": 4285,
      "ee": 4286,
      "ready": 4287,
      ");\r\n": 4288,
      "▁(S": 4289,
      "tiqu": 4290,
      "▁Sec": 4291,
      "ution": 4292,
      "▁sommes": 4293,
      "ls": 4294,
      ".b": 4295,
      "\nm": 4296,
      "''": 4297,
      "Une": 4298,
      "organ": 4299,
      "▁star": 4300,
      "Over": 4301,
      "--------------------------------": 4302,
      "Aut": 4303,
      "▁Mont": 4304,
      "RA": 4305,
      "ecture": 4306,
      "▁Cour": 4307,
      "yant": 4308,
      "▁spécial": 4309,
      "▁ca": 4310,
      "IE": 4311,
      "▁fais": 4312,
      "la": 4313,
      "ettes": 4314,
      "▁might": 4315,
      "ueil": 4316,
      "ng": 4317,
      "Input": 4318,
      "▁début": 4319,
      "jouter": 4320,
      "ées,": 4321,
      "▁champ": 4322,
      "////////": 4323,
      "esti": 4324,
      "\":\"": 4325,
      "ète": 4326,
      "▁anc": 4327,
      "iled": 4328,
      ".t": 4329,
      "}\\": 4330,
      "▁ress": 4331,
      "-mail": 4332,
      "▁m’": 4333,
      "▁mode": 4334,
      "Class": 4335,
      "▁intér": 4336,
      "▁vir": 4337,
      "-F": 4338,
      "quel": 4339,
      "thing": 4340,
      "▁réc": 4341,
      "▁output": 4342,
      "▁offer": 4343,
      "▁jam": 4344,
      "▁certains": 4345,
      "▁ill": 4346,
      "rap": 4347,
      "▁hard": 4348,
      "urance": 4349,
      "▁Ret": 4350,
      "▁gestion": 4351,
      "▁never": 4352,
      "u,": 4353,
      "bum": 4354,
      "ité,": 4355,
      "▁situation": 4356,
      "▁Ste": 4357,
      "▁{\r\n": 4358,
      "olean": 4359,
      "▁AN": 4360,
      "ored": 4361,
      "label": 4362,
      "auv": 4363,
      "ent.": 4364,
      "SS": 4365,
      "▁red": 4366,
      "▁système": 4367,
      "option": 4368,
      "▁beh": 4369,
      "▁piè": 4370,
      "atoire": 4371,
      "▁solution": 4372,
      "▁experience": 4373,
      "▁seul": 4374,
      "begin": 4375,
      "▁@param": 4376,
      "ence,": 4377,
      "ither": 4378,
      "-A": 4379,
      "▁java.": 4380,
      "');\n": 4381,
      "▁fab": 4382,
      "ify": 4383,
      "ino": 4384,
      "▁EN": 4385,
      "aute": 4386,
      "Param": 4387,
      "▁I'm": 4388,
      "▁Jul": 4389,
      "▁Fe": 4390,
      "▁cy": 4391,
      "▁haut": 4392,
      "▁habit": 4393,
      "▁choix": 4394,
      "s.p": 4395,
      "apt": 4396,
      "▁too": 4397,
      "▁tax": 4398,
      "▁divers": 4399,
      "▁consid": 4400,
      "\nAn": 4401,
      "include": 4402,
      "▁technique": 4403,
      "▁feel": 4404,
      "▁collection": 4405,
      "▁job": 4406,
      "▁constitu": 4407,
      "-h": 4408,
      "▁something": 4409,
      "▁là": 4410,
      "urer": 4411,
      "\\\"": 4412,
      "és.": 4413,
      "en.": 4414,
      "▁double": 4415,
      "▁problem": 4416,
      "][": 4417,
      "▁manière": 4418,
      "▁(n": 4419,
      "orer": 4420,
      "▁celle": 4421,
      "anch": 4422,
      "_S": 4423,
      "ava": 4424,
      "_w": 4425,
      "▁simil": 4426,
      "self.": 4427,
      "▁l'h": 4428,
      "vert": 4429,
      "lib": 4430,
      "ights": 4431,
      "accès": 4432,
      "▁little": 4433,
      "Map": 4434,
      "▁respect": 4435,
      "ana": 4436,
      "ume": 4437,
      "▁forme": 4438,
      ".\"\n": 4439,
      "▁sever": 4440,
      "▁ask": 4441,
      "aterial": 4442,
      "Response": 4443,
      "▁Fin": 4444,
      "▁relations": 4445,
      "▁famille": 4446,
      "▁control": 4447,
      "orter": 4448,
      "istance": 4449,
      "emp": 4450,
      "iod": 4451,
      "▁dét": 4452,
      "ociation": 4453,
      "ined": 4454,
      "Les": 4455,
      "phone": 4456,
      "▁love": 4457,
      "▁Af": 4458,
      "ently": 4459,
      "ela": 4460,
      "###": 4461,
      "box": 4462,
      "/m": 4463,
      "(l": 4464,
      "▁sites": 4465,
      "▁Ces": 4466,
      "▁sure": 4467,
      "▁emb": 4468,
      "ATE": 4469,
      "▁required": 4470,
      "OP": 4471,
      "▁dem": 4472,
      "▁d'in": 4473,
      "ified": 4474,
      "left": 4475,
      "usion": 4476,
      "▁retr": 4477,
      ".st": 4478,
      "Des": 4479,
      "▁cô": 4480,
      "mit": 4481,
      "▁clim": 4482,
      "▁whe": 4483,
      "iver": 4484,
      "▁index": 4485,
      "▁Conse": 4486,
      "leg": 4487,
      "▁condition": 4488,
      "▁asse": 4489,
      "▁far": 4490,
      "▁fonctionn": 4491,
      "lectron": 4492,
      "▁provide": 4493,
      "▁called": 4494,
      "s)": 4495,
      "able,": 4496,
      "▁(P": 4497,
      "erstand": 4498,
      "Form": 4499,
      "atre": 4500,
      "▁music": 4501,
      "▁questions": 4502,
      "ocus": 4503,
      "▁keep": 4504,
      "ires": 4505,
      "Sh": 4506,
      "▁п": 4507,
      "▁class=\"": 4508,
      "▁santé": 4509,
      "enter": 4510,
      "▁À": 4511,
      "uage": 4512,
      "AA": 4513,
      "ocation": 4514,
      "It": 4515,
      "tisse": 4516,
      "point": 4517,
      "TER": 4518,
      "unes": 4519,
      "aj": 4520,
      "alisation": 4521,
      "▁interest": 4522,
      "▁Mus": 4523,
      "▁York": 4524,
      "ecess": 4525,
      "▁array": 4526,
      "urb": 4527,
      "érique": 4528,
      "ology": 4529,
      "ney": 4530,
      "▁souha": 4531,
      "ury": 4532,
      "▁research": 4533,
      "▁mieux": 4534,
      "\n\t\t": 4535,
      "ports": 4536,
      "in.": 4537,
      "tition": 4538,
      "▁inves": 4539,
      "mar": 4540,
      "▁mort": 4541,
      "aux,": 4542,
      "****************": 4543,
      "ME": 4544,
      "aître": 4545,
      "▁stat": 4546,
      "ived": 4547,
      "ilt": 4548,
      "érieur": 4549,
      "▁jamais": 4550,
      "▁values": 4551,
      "pend": 4552,
      "▁Co": 4553,
      "▁able": 4554,
      "_list": 4555,
      "▁bonne": 4556,
      "NE": 4557,
      "▁based": 4558,
      "▁seem": 4559,
      "▁fun": 4560,
      "▁format": 4561,
      "Event": 4562,
      "▁Jan": 4563,
      "▁d’in": 4564,
      "(b": 4565,
      "▁hor": 4566,
      "ève": 4567,
      "qué": 4568,
      "plac": 4569,
      "Node": 4570,
      "▁company": 4571,
      "▁effic": 4572,
      "▁belie": 4573,
      "entreprise": 4574,
      "▁liste": 4575,
      "▁fre": 4576,
      "▁length": 4577,
      "▁international": 4578,
      "registr": 4579,
      "ases": 4580,
      "▁propri": 4581,
      "▁discuss": 4582,
      "rimer": 4583,
      "▁/**\n": 4584,
      "}$": 4585,
      "aill": 4586,
      "ionn": 4587,
      "response": 4588,
      "IB": 4589,
      "▁oth": 4590,
      "sych": 4591,
      "▁mer": 4592,
      "▁six": 4593,
      "▁det": 4594,
      "▁direction": 4595,
      "umer": 4596,
      "▁Rec": 4597,
      "ст": 4598,
      "pper": 4599,
      "ML": 4600,
      "change": 4601,
      "Man": 4602,
      "▁Rob": 4603,
      "ayer": 4604,
      "-il": 4605,
      ".split": 4606,
      "▁histor": 4607,
      "▁Sur": 4608,
      "▁rais": 4609,
      "▁général": 4610,
      "▁things": 4611,
      "bar": 4612,
      "-g": 4613,
      "default": 4614,
      "▁dess": 4615,
      "▁seront": 4616,
      "▁gouver": 4617,
      "lier": 4618,
      "OD": 4619,
      "▁http://": 4620,
      "ags": 4621,
      "▁Te": 4622,
      "▁...\n": 4623,
      ".w": 4624,
      "lected": 4625,
      "▁AP": 4626,
      "></": 4627,
      "True": 4628,
      "ility": 4629,
      "▁parten": 4630,
      "oyer": 4631,
      "aps": 4632,
      "▁Em": 4633,
      "▁membres": 4634,
      "resh": 4635,
      "▁DU": 4636,
      "▁président": 4637,
      "▁mati": 4638,
      "▁fur": 4639,
      "array": 4640,
      "▁give": 4641,
      "olutions": 4642,
      "▁organis": 4643,
      "▁Google": 4644,
      "▁working": 4645,
      "▁calcul": 4646,
      "▁matéri": 4647,
      "ought": 4648,
      "indre": 4649,
      "Ad": 4650,
      "▁Ils": 4651,
      "check": 4652,
      "ube": 4653,
      "ie.": 4654,
      "▁indi": 4655,
      "▁already": 4656,
      "FA": 4657,
      "issant": 4658,
      "state": 4659,
      "ually": 4660,
      "▁enfants": 4661,
      "iam": 4662,
      "typ": 4663,
      "voir": 4664,
      "▁porte": 4665,
      "Path": 4666,
      "▁include": 4667,
      "▁Bo": 4668,
      "▁special": 4669,
      "▁Ann": 4670,
      "▁Op": 4671,
      "▁link": 4672,
      "▁less": 4673,
      "▁least": 4674,
      "ordin": 4675,
      "acy": 4676,
      "_T": 4677,
      "Element": 4678,
      "▁coll": 4679,
      "▁limit": 4680,
      "_M": 4681,
      "▁extern": 4682,
      "ouvrir": 4683,
      "ivent": 4684,
      "▁maison": 4685,
      ".g": 4686,
      "▁arch": 4687,
      "tier": 4688,
      "▁appel": 4689,
      "▁anti": 4690,
      "arc": 4691,
      ".add": 4692,
      "atisf": 4693,
      "▁vé": 4694,
      "((": 4695,
      "mission": 4696,
      "▁sup": 4697,
      "▁(M": 4698,
      "ontre": 4699,
      "tification": 4700,
      "▁souvent": 4701,
      ".M": 4702,
      "Info": 4703,
      "ately": 4704,
      "stra": 4705,
      "Code": 4706,
      "OUR": 4707,
      "\nTh": 4708,
      "▁impro": 4709,
      "▁specific": 4710,
      "▁That": 4711,
      "\\\\": 4712,
      "\n\nN": 4713,
      "▁cam": 4714,
      "▁voit": 4715,
      "▁ayant": 4716,
      "'ll": 4717,
      "ground": 4718,
      "ocument": 4719,
      "ris": 4720,
      "times": 4721,
      "Equ": 4722,
      "▁ach": 4723,
      "github.com/": 4724,
      "IP": 4725,
      "▁série": 4726,
      "_pro": 4727,
      "▁•": 4728,
      "Array": 4729,
      "▁PAR": 4730,
      "ores": 4731,
      "▁Mal": 4732,
      "chema": 4733,
      "ustri": 4734,
      "ae": 4735,
      "▁My": 4736,
      "ended": 4737,
      "▁visit": 4738,
      "tout": 4739,
      "rel": 4740,
      "ia,": 4741,
      "▁parc": 4742,
      "▁descri": 4743,
      "ader": 4744,
      "▁len": 4745,
      "et.": 4746,
      "▁êtes": 4747,
      "ard,": 4748,
      "ftware": 4749,
      "▁million": 4750,
      "ynam": 4751,
      "perties": 4752,
      "▁nécessaire": 4753,
      "object": 4754,
      "▁dernier": 4755,
      "▁understand": 4756,
      "ouble": 4757,
      "▁License": 4758,
      "▁travers": 4759,
      "title": 4760,
      "▁inde": 4761,
      "pecial": 4762,
      "▁()": 4763,
      "▁développement": 4764,
      "▁represent": 4765,
      "▁pris": 4766,
      "▁author": 4767,
      "▁low": 4768,
      "ogn": 4769,
      "▁Off": 4770,
      "▁impl": 4771,
      "▁family": 4772,
      "▁It's": 4773,
      "▁connec": 4774,
      "▁prac": 4775,
      "QU": 4776,
      "command": 4777,
      "▁garanti": 4778,
      "▁centre": 4779,
      "ge,": 4780,
      "▁reconn": 4781,
      "ero": 4782,
      "▁ouv": 4783,
      "▁water": 4784,
      "osp": 4785,
      "▁tradition": 4786,
      "▁D'": 4787,
      "alog": 4788,
      "▁effec": 4789,
      "f,": 4790,
      "application": 4791,
      "▁human": 4792,
      "-in": 4793,
      "▁durée": 4794,
      "▁eu": 4795,
      "▁dès": 4796,
      "▁meet": 4797,
      "_map": 4798,
      "▁procéd": 4799,
      "▁aw": 4800,
      "çu": 4801,
      "nd": 4802,
      "▁particular": 4803,
      "aisse": 4804,
      "suite": 4805,
      "output": 4806,
      "ibli": 4807,
      "▁visite": 4808,
      "ministrateur": 4809,
      "▁bal": 4810,
      "férence": 4811,
      "▁space": 4812,
      "▁commune": 4813,
      "eux": 4814,
      "▁mass": 4815,
      "ira": 4816,
      "-w": 4817,
      "gré": 4818,
      "ur,": 4819,
      ".S.": 4820,
      "▁».": 4821,
      "())": 4822,
      "▁third": 4823,
      "illage": 4824,
      "▁candid": 4825,
      "▁minutes": 4826,
      "\nVous": 4827,
      "CT": 4828,
      "isl": 4829,
      "oo": 4830,
      "oper": 4831,
      "▁options": 4832,
      "▁aim": 4833,
      "or,": 4834,
      "ably": 4835,
      "▁List": 4836,
      "ANT": 4837,
      "</a": 4838,
      "▁Lib": 4839,
      "ensemble": 4840,
      "▁types": 4841,
      "fs": 4842,
      "unic": 4843,
      "})": 4844,
      "▁ci": 4845,
      "orie": 4846,
      "▁Sch": 4847,
      "With": 4848,
      "uk": 4849,
      "▁:param": 4850,
      "▁children": 4851,
      "▁Christ": 4852,
      "-D": 4853,
      "eta": 4854,
      "▁grâce": 4855,
      "▁compar": 4856,
      "iance": 4857,
      "Of": 4858,
      "▁traitement": 4859,
      "assert": 4860,
      "▁Gl": 4861,
      "▁Act": 4862,
      "Log": 4863,
      "▁d’autres": 4864,
      "NAME>": 4865,
      "▁subs": 4866,
      "▁infl": 4867,
      "duire": 4868,
      "tenir": 4869,
      "esp": 4870,
      "andom": 4871,
      "▁lien": 4872,
      "▁Per": 4873,
      "ulement": 4874,
      "▁femme": 4875,
      "unk": 4876,
      "▁website": 4877,
      "▁NULL": 4878,
      "▁radi": 4879,
      "▁(m": 4880,
      "▁établ": 4881,
      "▁communication": 4882,
      "[]": 4883,
      "span": 4884,
      "▁lorsque": 4885,
      "ants,": 4886,
      "Service": 4887,
      "quence": 4888,
      "omme": 4889,
      "RES": 4890,
      "do": 4891,
      "▁etc.": 4892,
      "ribut": 4893,
      "▁objec": 4894,
      "================": 4895,
      "(\\": 4896,
      "▁Trans": 4897,
      "▁heures": 4898,
      "urr": 4899,
      "avoir": 4900,
      "▁std::": 4901,
      "void": 4902,
      "▁l’in": 4903,
      "'ve": 4904,
      "}{": 4905,
      "erial": 4906,
      "▁element": 4907,
      "stance": 4908,
      "▁United": 4909,
      "asc": 4910,
      "▁Soci": 4911,
      "▁short": 4912,
      "ift": 4913,
      "▁org": 4914,
      "▁possibil": 4915,
      "oney": 4916,
      "-Un": 4917,
      "▁means": 4918,
      "▁Comp": 4919,
      "▁clos": 4920,
      "▁Conseil": 4921,
      "-th": 4922,
      "atter": 4923,
      "▁équipe": 4924,
      "▁messages": 4925,
      "_v": 4926,
      "▁période": 4927,
      "ench": 4928,
      "Pr": 4929,
      "nel": 4930,
      "uille": 4931,
      "▁pens": 4932,
      "▁reste": 4933,
      "▁mean": 4934,
      "TT": 4935,
      "iez": 4936,
      "alf": 4937,
      "abs": 4938,
      "▁done": 4939,
      "▁news": 4940,
      "older": 4941,
      "▁light": 4942,
      "soft": 4943,
      "plate": 4944,
      "▁until": 4945,
      "▁mesure": 4946,
      ">\n<": 4947,
      "\nQ": 4948,
      "||": 4949,
      "▁American": 4950,
      "x,": 4951,
      "ancer": 4952,
      "mbol": 4953,
      "roy": 4954,
      "▁email": 4955,
      "▁With": 4956,
      "▁along": 4957,
      "AU": 4958,
      "▁room": 4959,
      "▁section": 4960,
      "Bl": 4961,
      "ike": 4962,
      "▁RE": 4963,
      "aise": 4964,
      "▁lo": 4965,
      "▁National": 4966,
      "▁When": 4967,
      "Sc": 4968,
      "équipe": 4969,
      "oe": 4970,
      "▁construction": 4971,
      "▁mét": 4972,
      "était": 4973,
      "ant.": 4974,
      "iner": 4975,
      "oung": 4976,
      "/d": 4977,
      "ël": 4978,
      "auté": 4979,
      "rect": 4980,
      "▁foot": 4981,
      "Context": 4982,
      "\n\n#": 4983,
      "▁в": 4984,
      "▁land": 4985,
      "ion,": 4986,
      "▁d’ex": 4987,
      "▁II": 4988,
      "▁analys": 4989,
      "echer": 4990,
      "▁community": 4991,
      "▁opp": 4992,
      "▁Indi": 4993,
      "ine.": 4994,
      "urs,": 4995,
      "IV": 4996,
      "now": 4997,
      "▁False": 4998,
      "pportun": 4999,
      "▁accomp": 5000,
      ".append": 5001,
      "▁address": 5002,
      "---": 5003,
      "▁présente": 5004,
      "sk": 5005,
      "ling": 5006,
      "▁(p": 5007,
      "partement": 5008,
      "ocol": 5009,
      "Index": 5010,
      "▁State": 5011,
      "lé": 5012,
      "▁story": 5013,
      "autre": 5014,
      "LO": 5015,
      "▁sort": 5016,
      "▁Dis": 5017,
      "Is": 5018,
      "▁cm": 5019,
      "erne": 5020,
      "на": 5021,
      "no": 5022,
      "▁dispositions": 5023,
      "▁aujourd": 5024,
      "▁rien": 5025,
      "tient": 5026,
      "▁capac": 5027,
      "▁nouvelles": 5028,
      "orage": 5029,
      "fort": 5030,
      "▁travaux": 5031,
      "ically": 5032,
      "agit": 5033,
      "ront": 5034,
      "▁kind": 5035,
      "ни": 5036,
      ".org/": 5037,
      "▁prin": 5038,
      "▁plac": 5039,
      "}\n\\": 5040,
      "▁poli": 5041,
      ".\nPour": 5042,
      "zz": 5043,
      "▁coup": 5044,
      "annel": 5045,
      "Override": 5046,
      "▁jeu": 5047,
      "▁account": 5048,
      "tives": 5049,
      "▁CH": 5050,
      "ironnement": 5051,
      "▁ten": 5052,
      "▁example,": 5053,
      "▁side": 5054,
      "▁World": 5055,
      "\nimport": 5056,
      "▁several": 5057,
      "ра": 5058,
      "▁programme": 5059,
      "▁prior": 5060,
      "\nRe": 5061,
      "▁bit": 5062,
      "cted": 5063,
      "▁away": 5064,
      "▁map": 5065,
      "osition": 5066,
      "mary": 5067,
      "is.": 5068,
      "▁gre": 5069,
      "Model": 5070,
      "▁win": 5071,
      "▁today": 5072,
      "▁item": 5073,
      "s[": 5074,
      "ayout": 5075,
      "▁performance": 5076,
      "▁satisf": 5077,
      ".\nWh": 5078,
      "▁node": 5079,
      "▁character": 5080,
      "▁it.": 5081,
      "▁catég": 5082,
      "iement": 5083,
      ".\nHaut": 5084,
      "MENT": 5085,
      "a-": 5086,
      "▁nombreux": 5087,
      "ysi": 5088,
      "▁cover": 5089,
      "quez": 5090,
      "▁fund": 5091,
      "▁{\n\t\t": 5092,
      "▁session": 5093,
      "asseur": 5094,
      "crit": 5095,
      "▁making": 5096,
      "▁personnel": 5097,
      "vely": 5098,
      "▁expect": 5099,
      "▁city": 5100,
      "rog": 5101,
      "▁graph": 5102,
      ");\n\t\t": 5103,
      "CC": 5104,
      "?\n": 5105,
      "▁What": 5106,
      "=None": 5107,
      "d.": 5108,
      "▁talk": 5109,
      "Ass": 5110,
      "▁body": 5111,
      "▁publ": 5112,
      "Message": 5113,
      "▁optim": 5114,
      "▁collab": 5115,
      "▁univers": 5116,
      "▁network": 5117,
      "▁mor": 5118,
      "▁vic": 5119,
      "▁integers": 5120,
      "otion": 5121,
      ">>": 5122,
      "▁chose": 5123,
      "▁facile": 5124,
      "▁seulement": 5125,
      "/c": 5126,
      "ython": 5127,
      "A,": 5128,
      "▁block": 5129,
      "▁gam": 5130,
      "▁rév": 5131,
      "(a": 5132,
      "▁respec": 5133,
      "\nL’": 5134,
      "▁instance": 5135,
      "▁contrôle": 5136,
      "▁either": 5137,
      "▁elles": 5138,
      "Size": 5139,
      "lez": 5140,
      "▁row": 5141,
      "▁clients": 5142,
      "request": 5143,
      "▁Dé": 5144,
      "▁\"c": 5145,
      "▁maximum": 5146,
      "▁d'ex": 5147,
      "▁force": 5148,
      "abel": 5149,
      "▁days": 5150,
      "▁bud": 5151,
      "▁why": 5152,
      "▁exec": 5153,
      "-dess": 5154,
      "_F": 5155,
      "aa": 5156,
      "Add": 5157,
      "▁Reg": 5158,
      "▁restaur": 5159,
      "os,": 5160,
      "que,": 5161,
      "▁utilisé": 5162,
      "auteur": 5163,
      "Il": 5164,
      "▁administra": 5165,
      "leurs": 5166,
      "▁contenu": 5167,
      "▁lik": 5168,
      "▁raison": 5169,
      "▁says": 5170,
      ".ex": 5171,
      "rieur": 5172,
      "uy": 5173,
      "▁Engl": 5174,
      "_path": 5175,
      "▁jusqu'": 5176,
      "cast": 5177,
      "▁jusqu’": 5178,
      "▁appr": 5179,
      "▁become": 5180,
      "-être": 5181,
      "▁One": 5182,
      "s_": 5183,
      "Be": 5184,
      "ergy": 5185,
      "lem": 5186,
      "▁toget": 5187,
      "▁beau": 5188,
      "User": 5189,
      "âte": 5190,
      "▁Dav": 5191,
      "▁transport": 5192,
      "uits": 5193,
      "\nUn": 5194,
      "’ai": 5195,
      "▁whether": 5196,
      "▁structure": 5197,
      "▁minimum": 5198,
      "▁signific": 5199,
      "och": 5200,
      "intér": 5201,
      "ièrement": 5202,
      "▁vente": 5203,
      "▁Commission": 5204,
      "ering": 5205,
      "▁West": 5206,
      "▁\"s": 5207,
      "▁students": 5208,
      "▁trouve": 5209,
      "it.": 5210,
      "▁opportun": 5211,
      "gle": 5212,
      "icrosoft": 5213,
      "ersion": 5214,
      "_model": 5215,
      "ipp": 5216,
      "All": 5217,
      ";\n\t\t": 5218,
      "▁valeur": 5219,
      "ategory": 5220,
      "▁entreprises": 5221,
      "▁task": 5222,
      "▁answer": 5223,
      "ama": 5224,
      "▁appli": 5225,
      "▁thing": 5226,
      "itable": 5227,
      "▁façon": 5228,
      "apter": 5229,
      "▁œuv": 5230,
      "info": 5231,
      "▁across": 5232,
      "Up": 5233,
      "▁contrat": 5234,
      "▁cop": 5235,
      "oses": 5236,
      "▁above": 5237,
      "f.": 5238,
      "▁thought": 5239,
      "▁Pres": 5240,
      "But": 5241,
      "d,": 5242,
      "oto": 5243,
      "items": 5244,
      "ica": 5245,
      "▁\"S": 5246,
      "▁femmes": 5247,
      "PE": 5248,
      "▁doesn't": 5249,
      "field": 5250,
      "▁sugg": 5251,
      "▁né": 5252,
      "▁sent": 5253,
      "eral": 5254,
      "▁déclar": 5255,
      "come": 5256,
      "quis": 5257,
      "étique": 5258,
      "▁l’é": 5259,
      "▁Mc": 5260,
      "dev": 5261,
      "▁Will": 5262,
      "▁améric": 5263,
      "-G": 5264,
      "▁propose": 5265,
      "▁sélection": 5266,
      "db": 5267,
      "side": 5268,
      "uve": 5269,
      "end{": 5270,
      "▁future": 5271,
      "unc": 5272,
      "link": 5273,
      "term": 5274,
      "ij": 5275,
      "once": 5276,
      "▁nationale": 5277,
      "bed": 5278,
      "▁élect": 5279,
      "▁});\n": 5280,
      "ontr": 5281,
      "begin{": 5282,
      "oti": 5283,
      "▁audi": 5284,
      "▁exerc": 5285,
      "▁System": 5286,
      "/p": 5287,
      "ourg": 5288,
      "▁indic": 5289,
      "▁econom": 5290,
      "aires,": 5291,
      "▁having": 5292,
      "CL": 5293,
      "▁Ré": 5294,
      "pose": 5295,
      "otal": 5296,
      "-je": 5297,
      "▁often": 5298,
      "mis": 5299,
      "aide": 5300,
      "ocal": 5301,
      "ètres": 5302,
      "▁government": 5303,
      "année": 5304,
      "▁ans,": 5305,
      "▁compan": 5306,
      "ов": 5307,
      "▁Sal": 5308,
      "(input": 5309,
      "])\n": 5310,
      "’hui": 5311,
      "▁cin": 5312,
      "▁larg": 5313,
      "()\n\n": 5314,
      "▁poss": 5315,
      "Output": 5316,
      ";\n\nimport": 5317,
      "This": 5318,
      "eries": 5319,
      "Int": 5320,
      "▁jur": 5321,
      "ropri": 5322,
      "▁sau": 5323,
      "rès": 5324,
      "▁commentaire": 5325,
      "eline": 5326,
      "▁Code": 5327,
      "▁ministre": 5328,
      "NO": 5329,
      "Trans": 5330,
      "▁plate": 5331,
      "▁utilise": 5332,
      "▁begin": 5333,
      "▁fall": 5334,
      "Att": 5335,
      "dom": 5336,
      "identialité": 5337,
      "▁press": 5338,
      "erson": 5339,
      "px": 5340,
      "ducation": 5341,
      "run": 5342,
      "▁South": 5343,
      "open": 5344,
      "titution": 5345,
      "raft": 5346,
      "Date": 5347,
      "▁Aug": 5348,
      "▁cham": 5349,
      "▁surtout": 5350,
      "duce": 5351,
      "atform": 5352,
      "▁complex": 5353,
      ".pro": 5354,
      "▁TV": 5355,
      "tream": 5356,
      "qu’": 5357,
      "\nCont": 5358,
      "iversité": 5359,
      "▁house": 5360,
      "▁org.": 5361,
      "▁créer": 5362,
      "aï": 5363,
      "éré": 5364,
      "abase": 5365,
      "▁contacter": 5366,
      "▁réd": 5367,
      "▁live": 5368,
      "▁hold": 5369,
      "▁Port": 5370,
      "▁Bel": 5371,
      "▁moyen": 5372,
      "▁médi": 5373,
      "-même": 5374,
      "▁These": 5375,
      "▁once": 5376,
      "▁times": 5377,
      "▁resource": 5378,
      "▁original": 5379,
      "-nous": 5380,
      "wards": 5381,
      "▁DES": 5382,
      "\nPro": 5383,
      "asure": 5384,
      "▁results": 5385,
      "lin": 5386,
      "▁marché": 5387,
      "▁known": 5388,
      "RAN": 5389,
      "(this": 5390,
      "▁observ": 5391,
      ".get('": 5392,
      "▁utiliser": 5393,
      "(i": 5394,
      "At": 5395,
      "enef": 5396,
      "▁quar": 5397,
      "▁l’ad": 5398,
      "\r\n\t": 5399,
      "▁enough": 5400,
      "▁réponse": 5401,
      "▁relig": 5402,
      "No": 5403,
      "▁due": 5404,
      "▁circ": 5405,
      "fault": 5406,
      "▁City": 5407,
      "▁с": 5408,
      "▁online": 5409,
      "IRE": 5410,
      "▁cat": 5411,
      "▁ton": 5412,
      "▁commerc": 5413,
      "▁tell": 5414,
      "();\n\n": 5415,
      "▁conserv": 5416,
      "amed": 5417,
      "▁lic": 5418,
      "ustral": 5419,
      "▁Ét": 5420,
      "▁Cap": 5421,
      "ations,": 5422,
      "([": 5423,
      "▁parent": 5424,
      "▁l’éc": 5425,
      "▁réserv": 5426,
      "ieur": 5427,
      "▁trouv": 5428,
      "▁individual": 5429,
      "▁thé": 5430,
      "▁food": 5431,
      "init__": 5432,
      "oins": 5433,
      "forme": 5434,
      ".\nG": 5435,
      "\\xf": 5436,
      "▁Sep": 5437,
      "▁load": 5438,
      "'),\n": 5439,
      "▁Acc": 5440,
      "▁n’a": 5441,
      "▁décision": 5442,
      "▁nouveaux": 5443,
      "▁l'in": 5444,
      "-R": 5445,
      ".fr": 5446,
      "▁compét": 5447,
      "SON": 5448,
      "Ph": 5449,
      "▁Pat": 5450,
      "yc": 5451,
      "▁den": 5452,
      "query": 5453,
      "▁column": 5454,
      "▁jud": 5455,
      "▁description": 5456,
      "▁area": 5457,
      "▁exclus": 5458,
      "orted": 5459,
      "▁review": 5460,
      "▁raise": 5461,
      "▁e-mail": 5462,
      "ested": 5463,
      "▁retour": 5464,
      "pre": 5465,
      "▁essenti": 5466,
      "▁friend": 5467,
      "▁educ": 5468,
      "▁context": 5469,
      "Result": 5470,
      "▁you're": 5471,
      "iant": 5472,
      "_D": 5473,
      "▁références": 5474,
      "Group": 5475,
      "▁matière": 5476,
      "Hand": 5477,
      "▁reven": 5478,
      "’aime": 5479,
      "▁lay": 5480,
      "▁property": 5481,
      "kwarg": 5482,
      "MP": 5483,
      "▁invol": 5484,
      "ain,": 5485,
      "\nW": 5486,
      "▁pourra": 5487,
      "▁internet": 5488,
      "json": 5489,
      "▁studi": 5490,
      "▁global": 5491,
      "▁chau": 5492,
      "ades": 5493,
      "wise": 5494,
      "▁couple": 5495,
      "mm": 5496,
      "indows": 5497,
      "').": 5498,
      "▁cit": 5499,
      "img": 5500,
      ".sh": 5501,
      "▁Comment": 5502,
      "▁termin": 5503,
      "▁exception": 5504,
      "▁tourn": 5505,
      "▁didn't": 5506,
      "ervices": 5507,
      "_to": 5508,
      "▁livre": 5509,
      "olume": 5510,
      "éder": 5511,
      "▁non-": 5512,
      "unch": 5513,
      "▁commercial": 5514,
      "\n*": 5515,
      "▁search": 5516,
      "▁history": 5517,
      "▁donner": 5518,
      "▁d'A": 5519,
      "z,": 5520,
      "▁images": 5521,
      "Je": 5522,
      "ham": 5523,
      "▁doivent": 5524,
      "▁Facebook": 5525,
      "\nÉ": 5526,
      "able.": 5527,
      "inary": 5528,
      "▁period": 5529,
      "▁intro": 5530,
      "opyright": 5531,
      "\n\nL": 5532,
      "age.": 5533,
      "▁ens": 5534,
      "▁By": 5535,
      "\nNous": 5536,
      "joy": 5537,
      "tual": 5538,
      ",'": 5539,
      "aison": 5540,
      "▁expérience": 5541,
      "▁différents": 5542,
      "▁·": 5543,
      "k,": 5544,
      "▁sein": 5545,
      "▁com.": 5546,
      "▁except": 5547,
      "roit": 5548,
      "▁mondi": 5549,
      "▁vraiment": 5550,
      "▁devant": 5551,
      "▁prise": 5552,
      "estival": 5553,
      "ministration": 5554,
      "▁actions": 5555,
      "tead": 5556,
      "▁soir": 5557,
      "▁analy": 5558,
      "▁came": 5559,
      "S,": 5560,
      "\n//": 5561,
      "▁vit": 5562,
      "uite": 5563,
      "▁capital": 5564,
      "_size": 5565,
      "▁réseau": 5566,
      "ar,": 5567,
      "web": 5568,
      "ged": 5569,
      "ecessary": 5570,
      "raison": 5571,
      "quelle": 5572,
      ")\n\n\n": 5573,
      "\nDéc": 5574,
      "\\xc": 5575,
      "▁(!": 5576,
      "\\xb": 5577,
      "rice": 5578,
      "partment": 5579,
      "ienn": 5580,
      "▁bout": 5581,
      "▁tre": 5582,
      "urch": 5583,
      "▁North": 5584,
      "▁conform": 5585,
      "▁===": 5586,
      "▁(F": 5587,
      "▁vue": 5588,
      "▁location": 5589,
      "rivate": 5590,
      "▁save": 5591,
      "tude": 5592,
      "▁Tout": 5593,
      "map": 5594,
      "formations": 5595,
      "ois,": 5596,
      "erman": 5597,
      "▁homme": 5598,
      "▁product": 5599,
      "_code": 5600,
      "▁mission": 5601,
      "Mod": 5602,
      "Client": 5603,
      "▁imag": 5604,
      "/*": 5605,
      "paration": 5606,
      "ators": 5607,
      "attr": 5608,
      ".\nO": 5609,
      "▁d'autres": 5610,
      "ardin": 5611,
      "▁Paul": 5612,
      "▁l'E": 5613,
      "▁God": 5614,
      "▁d’être": 5615,
      "▁fich": 5616,
      "▁écrit": 5617,
      "\">\n": 5618,
      "update": 5619,
      "▁Lou": 5620,
      "▁{\n\n": 5621,
      "s(": 5622,
      "▁Grand": 5623,
      "▁appear": 5624,
      "▁entreprise": 5625,
      "uler": 5626,
      "\t\t\t\t\t\t": 5627,
      "xim": 5628,
      "isions": 5629,
      "most": 5630,
      "▁aucun": 5631,
      "▁numéro": 5632,
      "▁facil": 5633,
      "ualité": 5634,
      "aking": 5635,
      "QUE": 5636,
      "▁dict": 5637,
      "▁Rep": 5638,
      "▁près": 5639,
      "▁impact": 5640,
      "▁members": 5641,
      "▁ax": 5642,
      "▁Journ": 5643,
      "▁Chris": 5644,
      "▁Med": 5645,
      "▁route": 5646,
      "▁material": 5647,
      "iciel": 5648,
      "actions": 5649,
      "se,": 5650,
      ");\n\t": 5651,
      "▁frais": 5652,
      "ally,": 5653,
      "▁Get": 5654,
      ".is": 5655,
      "];\n": 5656,
      "ken": 5657,
      "])": 5658,
      "ponent": 5659,
      "▁véhic": 5660,
      "ter,": 5661,
      "▁effet": 5662,
      "ral": 5663,
      "▁exam": 5664,
      "▁exact": 5665,
      "▁complet": 5666,
      "▁makes": 5667,
      "orig": 5668,
      "▁tend": 5669,
      "crire": 5670,
      "room": 5671,
      "▁lit": 5672,
      "▁consult": 5673,
      "river": 5674,
      "And": 5675,
      "ership": 5676,
      "▁ever": 5677,
      "enseigne": 5678,
      "bug": 5679,
      "-y": 5680,
      "quired": 5681,
      "▁ir": 5682,
      "down": 5683,
      "▁among": 5684,
      "▁laquelle": 5685,
      "▁laiss": 5686,
      "▁country": 5687,
      "yg": 5688,
      "▁needs": 5689,
      "▁psych": 5690,
      "board": 5691,
      "▁reason": 5692,
      "▁auprès": 5693,
      "true": 5694,
      "▁certaines": 5695,
      "▁March": 5696,
      "▁focus": 5697,
      "▁note": 5698,
      "False": 5699,
      "orial": 5700,
      "▁p.": 5701,
      "enses": 5702,
      "▁box": 5703,
      "\n\n\n\n": 5704,
      "▁study": 5705,
      "▁juste": 5706,
      "(new": 5707,
      "aring": 5708,
      "abled": 5709,
      "▁consomm": 5710,
      "upp": 5711,
      "anted": 5712,
      "pring": 5713,
      "▁donne": 5714,
      "▁petite": 5715,
      "▁sû": 5716,
      "mn": 5717,
      "▁women": 5718,
      "▁côté": 5719,
      "onjour": 5720,
      "▁san": 5721,
      "util.": 5722,
      "▁positive": 5723,
      "▁teach": 5724,
      "quant": 5725,
      "▁tél": 5726,
      "▁previous": 5727,
      "▁Apr": 5728,
      "itte": 5729,
      "D,": 5730,
      ".html": 5731,
      "▁connect": 5732,
      "▁development": 5733,
      "▁below": 5734,
      "▁création": 5735,
      "▁activités": 5736,
      "▁parties": 5737,
      "alle": 5738,
      "ifest": 5739,
      "▁population": 5740,
      "▁track": 5741,
      "▁nég": 5742,
      "▁millions": 5743,
      "▁initial": 5744,
      "▁U.S.": 5745,
      "dis": 5746,
      "VE": 5747,
      "fect": 5748,
      "▁compris": 5749,
      "érif": 5750,
      "▁d'app": 5751,
      "▁looking": 5752,
      "▁l'é": 5753,
      "▁spécif": 5754,
      "▁name=\"": 5755,
      "▁early": 5756,
      "aged": 5757,
      "▁though": 5758,
      "▁commande": 5759,
      "▁serait": 5760,
      "▁School": 5761,
      "rance": 5762,
      "▁Ber": 5763,
      "▁photos": 5764,
      "BB": 5765,
      "-st": 5766,
      "-ce": 5767,
      "▁sw": 5768,
      "▁Mod": 5769,
      "▁statis": 5770,
      "▁implement": 5771,
      "▁created": 5772,
      "▁corps": 5773,
      "▁artis": 5774,
      "▁front": 5775,
      "▁relative": 5776,
      "▁taux": 5777,
      "ka": 5778,
      "ettings": 5779,
      "▁m'": 5780,
      "lim": 5781,
      "olution:\n\n": 5782,
      "▁title": 5783,
      "m.": 5784,
      "igned": 5785,
      "▁deli": 5786,
      "ias": 5787,
      "▁sil": 5788,
      "▁voul": 5789,
      "▁('": 5790,
      "êté": 5791,
      "\\xe": 5792,
      "▁q": 5793,
      "with": 5794,
      "used": 5795,
      "▁Pal": 5796,
      "▁cart": 5797,
      "▁np.": 5798,
      "▁Sm": 5799,
      "ceed": 5800,
      "_param": 5801,
      "active": 5802,
      "▁chall": 5803,
      "rib": 5804,
      "ilter": 5805,
      "▁Inter": 5806,
      "▁Mac": 5807,
      "Util": 5808,
      "▁conseil": 5809,
      "_dict": 5810,
      "jo": 5811,
      "▁tar": 5812,
      "roups": 5813,
      "▁art": 5814,
      "titude": 5815,
      "▁proch": 5816,
      "▁cookie": 5817,
      "▁Service": 5818,
      "ague": 5819,
      "▁rue": 5820,
      "umb": 5821,
      "▁personal": 5822,
      "▁cases": 5823,
      "rer": 5824,
      "▁externes": 5825,
      "▁Ed": 5826,
      "▁strong": 5827,
      "_B": 5828,
      "().split": 5829,
      ".\nThis": 5830,
      "▁benef": 5831,
      "UM": 5832,
      "▁night": 5833,
      "ara": 5834,
      "▁bill": 5835,
      "itch": 5836,
      "▁can't": 5837,
      "post": 5838,
      "`,": 5839,
      "▁pages": 5840,
      "▁remain": 5841,
      "énom": 5842,
      "▁professionnel": 5843,
      "ario": 5844,
      "TO": 5845,
      "▁milit": 5846,
      "top": 5847,
      "ate,": 5848,
      "▁difficult": 5849,
      "▁buy": 5850,
      "TR": 5851,
      "▁consul": 5852,
      "rest": 5853,
      "▁pratique": 5854,
      "▁police": 5855,
      "▁quoi": 5856,
      "▁aj": 5857,
      "▁distribu": 5858,
      "▁Air": 5859,
      "▁seule": 5860,
      "▁black": 5861,
      "m,": 5862,
      "▁Cal": 5863,
      "else": 5864,
      "▁propre": 5865,
      "▁uti": 5866,
      "▁(B": 5867,
      "▁took": 5868,
      "▁tool": 5869,
      "next": 5870,
      "▁proté": 5871,
      "<br": 5872,
      "▁por": 5873,
      "\nDes": 5874,
      "ITE": 5875,
      "▁mark": 5876,
      "ev": 5877,
      "▁club": 5878,
      "h,": 5879,
      "block": 5880,
      "▁Gener": 5881,
      "lectric": 5882,
      "itation": 5883,
      "duct": 5884,
      "▁progress": 5885,
      "▁\"M": 5886,
      "▁passer": 5887,
      "▁connex": 5888,
      "path": 5889,
      "▁amb": 5890,
      "▁l’E": 5891,
      "œur": 5892,
      "s:\n": 5893,
      "imal": 5894,
      "▁avis": 5895,
      "▁Lond": 5896,
      "▁role": 5897,
      "▁vendre": 5898,
      "les,": 5899,
      "PS": 5900,
      "êts": 5901,
      "▁méth": 5902,
      "________": 5903,
      "tte": 5904,
      "icon": 5905,
      "▁atte": 5906,
      "ale.": 5907,
      "▁display": 5908,
      "▁prend": 5909,
      "▁année": 5910,
      "erce": 5911,
      "▁claim": 5912,
      "▁mobile": 5913,
      "bf": 5914,
      "▁estim": 5915,
      "▁qualif": 5916,
      "cepte": 5917,
      "▁common": 5918,
      "uge": 5919,
      "▁famil": 5920,
      "▁fille": 5921,
      "▁Har": 5922,
      "▁problème": 5923,
      "▁eux": 5924,
      "▁mobil": 5925,
      "]\n\n": 5926,
      "▁département": 5927,
      "▁update": 5928,
      "issance": 5929,
      "lan": 5930,
      "▁rend": 5931,
      "EX": 5932,
      "pha": 5933,
      "▁physi": 5934,
      "_url": 5935,
      "▁hot": 5936,
      "▁convention": 5937,
      "▁solid": 5938,
      "▁deal": 5939,
      "▁International": 5940,
      "▁Dan": 5941,
      "lang": 5942,
      "avant": 5943,
      "▁cu": 5944,
      "oz": 5945,
      "▁bâ": 5946,
      "▁Que": 5947,
      "DF": 5948,
      "placement": 5949,
      "▁Sam": 5950,
      "▁Nove": 5951,
      "hés": 5952,
      "ares": 5953,
      "instance": 5954,
      "mark": 5955,
      "▁publique": 5956,
      "▁query": 5957,
      "▁concernant": 5958,
      "\";\n": 5959,
      "▁invest": 5960,
      "▁elif": 5961,
      "▁ban": 5962,
      "▁carte": 5963,
      "▁française": 5964,
      "ouverture": 5965,
      "hen": 5966,
      "\"\n\n": 5967,
      "\nRé": 5968,
      "▁aucune": 5969,
      "▁started": 5970,
      "▁classe": 5971,
      "▁conséqu": 5972,
      "idget": 5973,
      "▁chac": 5974,
      "actory": 5975,
      "ats-Un": 5976,
      "▁cv": 5977,
      "▁expected": 5978,
      "▁aver": 5979,
      "▁accept": 5980,
      "ERT": 5981,
      "bit": 5982,
      ">\n\n": 5983,
      "ueur": 5984,
      "where": 5985,
      "ptional": 5986,
      "▁gouvernement": 5987,
      "hib": 5988,
      "ands": 5989,
      "▁enregistr": 5990,
      "ding": 5991,
      "▁five": 5992,
      "▁fore": 5993,
      "▁obtain": 5994,
      "ado": 5995,
      "ants.": 5996,
      "▁march": 5997,
      "▁assez": 5998,
      "▁quatre": 5999,
      "olid": 6000,
      "▁court": 6001,
      "ées.": 6002,
      "tian": 6003,
      "▁{}": 6004,
      "▁meilleur": 6005,
      "Not": 6006,
      ".\nIl": 6007,
      "▁?\n": 6008,
      "▁label": 6009,
      "){": 6010,
      "ontent": 6011,
      "\").": 6012,
      "▁contract": 6013,
      "▁Internet": 6014,
      "uter": 6015,
      "Arg": 6016,
      "▁step": 6017,
      "▁jeune": 6018,
      "▁offre": 6019,
      "▁status": 6020,
      "ville": 6021,
      "witch": 6022,
      "▁..": 6023,
      "accord": 6024,
      "▁stop": 6025,
      "ouss": 6026,
      "▁\"C": 6027,
      "verse": 6028,
      "asing": 6029,
      "▁album": 6030,
      "▁treat": 6031,
      "rary": 6032,
      "▁transform": 6033,
      ".\n\nEx": 6034,
      "▁ache": 6035,
      "▁compt": 6036,
      "n,": 6037,
      "▁pack": 6038,
      "▁past": 6039,
      "▁différentes": 6040,
      "▁qu’ils": 6041,
      "bor": 6042,
      ".\n\nThe": 6043,
      "▁More": 6044,
      "mon": 6045,
      "▁Mad": 6046,
      "▁(D": 6047,
      "▁techniques": 6048,
      "▁professionnelle": 6049,
      "ialog": 6050,
      "▁poll": 6051,
      "otidi": 6052,
      "▁C'est": 6053,
      "▁region": 6054,
      "qu'": 6055,
      "▁cannot": 6056,
      "\ns": 6057,
      "▁étant": 6058,
      "▁IS": 6059,
      "▁parce": 6060,
      "▁names": 6061,
      "▁season": 6062,
      "ouvre": 6063,
      "▁Déc": 6064,
      "▁surve": 6065,
      "▁pense": 6066,
      "▁However,": 6067,
      "atiques": 6068,
      "parse": 6069,
      "ging": 6070,
      "▁write": 6071,
      "▁cherche": 6072,
      "UP": 6073,
      "():\n": 6074,
      "▁Jap": 6075,
      "▁industri": 6076,
      ".P": 6077,
      "uilder": 6078,
      "If": 6079,
      "▁outil": 6080,
      "oid": 6081,
      "Action": 6082,
      "▁store": 6083,
      "▁lire": 6084,
      "(String": 6085,
      "▁commission": 6086,
      "iques,": 6087,
      "▁UN": 6088,
      "\nc": 6089,
      "Rec": 6090,
      "lege": 6091,
      "▁texte": 6092,
      "at.": 6093,
      "isp": 6094,
      "gu": 6095,
      "▁étaient": 6096,
      "_ex": 6097,
      "oque": 6098,
      "ies.": 6099,
      "▁cut": 6100,
      "adata": 6101,
      "▁Form": 6102,
      "▁active": 6103,
      "Property": 6104,
      "▁Ind": 6105,
      "ède": 6106,
      "obj": 6107,
      "▁Commun": 6108,
      "▁plais": 6109,
      "ga": 6110,
      "▁d'h": 6111,
      "▁vér": 6112,
      "▁l'un": 6113,
      "▁utilisateurs": 6114,
      "▁retra": 6115,
      "▁d’h": 6116,
      "▁budget": 6117,
      "enf": 6118,
      "▁intéress": 6119,
      "▁Mem": 6120,
      "▁confidentialité": 6121,
      "-le": 6122,
      "▁Roy": 6123,
      "aign": 6124,
      "éris": 6125,
      "▁lum": 6126,
      "▁relation": 6127,
      "▁dernière": 6128,
      "uring": 6129,
      "▁''": 6130,
      "▁enjoy": 6131,
      "ole.": 6132,
      "▁arm": 6133,
      "▁multiple": 6134,
      "▁together": 6135,
      "▁consist": 6136,
      "(r": 6137,
      "TS": 6138,
      "▁augment": 6139,
      "▁share": 6140,
      "▁bois": 6141,
      "▁numbers": 6142,
      "▁éch": 6143,
      "▁video": 6144,
      "▁url": 6145,
      "aît": 6146,
      "install": 6147,
      "▁hon": 6148,
      "▁j'ai": 6149,
      "▁PRO": 6150,
      "ellig": 6151,
      "il,": 6152,
      "▁artist": 6153,
      "oche": 6154,
      "▁gratuit": 6155,
      "flow": 6156,
      "▁qu’elle": 6157,
      "▁Septe": 6158,
      "▁quality": 6159,
      "ilos": 6160,
      "▁fabric": 6161,
      "▁flo": 6162,
      "▁happen": 6163,
      "▁Do": 6164,
      "lément": 6165,
      "▁provided": 6166,
      "▁actually": 6167,
      "▁@Override": 6168,
      "▁réun": 6169,
      "frac": 6170,
      "R.": 6171,
      "▁sac": 6172,
      "▁host": 6173,
      "▁Mich": 6174,
      "▁précéd": 6175,
      "▁young": 6176,
      "▁boolean": 6177,
      "▁solutions": 6178,
      "onnection": 6179,
      "▁ge": 6180,
      "▁ep": 6181,
      "▁percent": 6182,
      "▁ear": 6183,
      "▁modern": 6184,
      "▁mots": 6185,
      ".\nLire": 6186,
      "▁{\"": 6187,
      "▁Ang": 6188,
      "rip": 6189,
      "ester": 6190,
      "heure": 6191,
      "_file": 6192,
      "▁that's": 6193,
      "▁prest": 6194,
      "▁close": 6195,
      "ite,": 6196,
      "▁construc": 6197,
      "Inter": 6198,
      "▁défaut": 6199,
      "ky": 6200,
      "▁auto": 6201,
      "sg": 6202,
      "\nPar": 6203,
      "le.": 6204,
      "▁plu": 6205,
      "nerg": 6206,
      "ко": 6207,
      "▁media": 6208,
      "plic": 6209,
      "ival": 6210,
      "s.get": 6211,
      "DI": 6212,
      "▁mind": 6213,
      "▁Red": 6214,
      "▁issue": 6215,
      "▁mention": 6216,
      "▁améli": 6217,
      "▁Son": 6218,
      "agram": 6219,
      "ya": 6220,
      "vi": 6221,
      "ugin": 6222,
      "▁environment": 6223,
      "▁l’on": 6224,
      "ureau": 6225,
      "▁After": 6226,
      "▁comes": 6227,
      "▁altern": 6228,
      "▁(N": 6229,
      "▁s’est": 6230,
      "▁ensemble": 6231,
      ".md": 6232,
      "▁zone": 6233,
      "ay,": 6234,
      "étés": 6235,
      "éments": 6236,
      "}\n\t": 6237,
      "▁nécessaires": 6238,
      "▁walk": 6239,
      "▁compon": 6240,
      "но": 6241,
      "({": 6242,
      "▁régul": 6243,
      "▁clear": 6244,
      "▁â": 6245,
      "Reg": 6246,
      "space": 6247,
      "▁juge": 6248,
      "▁href": 6249,
      "▁join": 6250,
      "Color": 6251,
      "▁marque": 6252,
      "▁Techn": 6253,
      "itre": 6254,
      "ologique": 6255,
      "▁(b": 6256,
      "PL": 6257,
      "\np": 6258,
      "~~": 6259,
      "riter": 6260,
      "▁etc": 6261,
      "▁prot": 6262,
      "\n\nInput\n\n": 6263,
      "▁influ": 6264,
      "ancement": 6265,
      "ald": 6266,
      "▁money": 6267,
      "gor": 6268,
      "▁malad": 6269,
      "▁détermin": 6270,
      "co": 6271,
      "ensions": 6272,
      "▁voyage": 6273,
      "uster": 6274,
      "ponsi": 6275,
      "▁OR": 6276,
      "▁photo": 6277,
      "▁catch": 6278,
      "▁Bra": 6279,
      "▁Sa": 6280,
      "▁adresse": 6281,
      "▁résultats": 6282,
      "irit": 6283,
      "▁San": 6284,
      "▁standard": 6285,
      "▁doing": 6286,
      "▁sensi": 6287,
      "▁price": 6288,
      "▁near": 6289,
      "imm": 6290,
      "▁Del": 6291,
      "▁permettre": 6292,
      "▁Mart": 6293,
      "▁gard": 6294,
      "posit": 6295,
      "▁Data": 6296,
      "▁feature": 6297,
      "▁siècle": 6298,
      "ried": 6299,
      "▁surface": 6300,
      "ensor": 6301,
      "▁Log": 6302,
      "▁l’un": 6303,
      "▁constr": 6304,
      "après": 6305,
      "▁quotidi": 6306,
      "build": 6307,
      "▁QUE": 6308,
      "▁server": 6309,
      "▁commentaires": 6310,
      "▁deuxième": 6311,
      "▁went": 6312,
      "▁rendre": 6313,
      "▁plans": 6314,
      "▁rôle": 6315,
      "emploi": 6316,
      "▁disponible": 6317,
      "▁sample": 6318,
      "-to": 6319,
      "▁d’é": 6320,
      "▁sociale": 6321,
      "▁naturel": 6322,
      "▁rende": 6323,
      "▁January": 6324,
      "▁médec": 6325,
      "▁term": 6326,
      "▁vidéo": 6327,
      "ref{": 6328,
      "▁sound": 6329,
      "start": 6330,
      "▁personnelles": 6331,
      "▁seen": 6332,
      "▁approach": 6333,
      "▁quelque": 6334,
      "▁cra": 6335,
      "zon": 6336,
      "pm": 6337,
      "astic": 6338,
      "▁destin": 6339,
      "▁contribu": 6340,
      "################": 6341,
      "doc": 6342,
      "\nCon": 6343,
      "▁nombreuses": 6344,
      "▁relev": 6345,
      "▁jeunes": 6346,
      "▁THE": 6347,
      "▁d'E": 6348,
      "▁ensuite": 6349,
      "mail": 6350,
      "member": 6351,
      "uelles": 6352,
      "▁Ma": 6353,
      "▁magn": 6354,
      "_time": 6355,
      "\n(": 6356,
      "ity,": 6357,
      "ocra": 6358,
      "ached": 6359,
      "▁semaine": 6360,
      "érations": 6361,
      "isode": 6362,
      "ny": 6363,
      "arde": 6364,
      "▁autour": 6365,
      "▁l’article": 6366,
      "▁EX": 6367,
      "arning": 6368,
      "issent": 6369,
      "body": 6370,
      "▁mari": 6371,
      "▁Canada": 6372,
      "▁getting": 6373,
      "▁spect": 6374,
      "▁Bro": 6375,
      "utôt": 6376,
      "objet": 6377,
      "▁express": 6378,
      "Table": 6379,
      "▁popul": 6380,
      "amm": 6381,
      ")$": 6382,
      "bon": 6383,
      "▁June": 6384,
      "▁pal": 6385,
      "▁amount": 6386,
      "rant": 6387,
      "bert": 6388,
      "▁l'A": 6389,
      "atural": 6390,
      "▁machine": 6391,
      "▁ment": 6392,
      "▁parents": 6393,
      "▁serve": 6394,
      "quent": 6395,
      "▁(A": 6396,
      "eurs": 6397,
      "▁Out": 6398,
      "orge": 6399,
      "▁ven": 6400,
      "▁language": 6401,
      "▁tw": 6402,
      "▁étudi": 6403,
      "▁whole": 6404,
      "▁further": 6405,
      "▁pièces": 6406,
      "rée": 6407,
      "▁montant": 6408,
      "▁it,": 6409,
      "▁Gra": 6410,
      "▁Dem": 6411,
      "Count": 6412,
      "zure": 6413,
      "▁pourquoi": 6414,
      "▁Cela": 6415,
      "ueill": 6416,
      "ilm": 6417,
      "\\begin{": 6418,
      "▁stream": 6419,
      "rl": 6420,
      "▁adj": 6421,
      "BC": 6422,
      "eq": 6423,
      "ublique": 6424,
      "▁tête": 6425,
      "Us": 6426,
      "▁R.": 6427,
      "▁équip": 6428,
      "▁Str": 6429,
      "entity": 6430,
      "▁gé": 6431,
      "unicip": 6432,
      "▁Franc": 6433,
      "though": 6434,
      "▁bring": 6435,
      "▁sport": 6436,
      "▁module": 6437,
      "▁ign": 6438,
      "temp": 6439,
      "Query": 6440,
      "▁suivant": 6441,
      "ors,": 6442,
      "ASS": 6443,
      "\nPr": 6444,
      "▁[...": 6445,
      "▁series": 6446,
      "▁correct": 6447,
      "lip": 6448,
      "raî": 6449,
      "▁supplément": 6450,
      "▁[\n": 6451,
      "ué": 6452,
      "▁Mag": 6453,
      "▁disposition": 6454,
      "▁Sud": 6455,
      "▁Mme": 6456,
      "▁Not": 6457,
      "▁QU": 6458,
      "▁former": 6459,
      "MS": 6460,
      "▁Afric": 6461,
      "▁pourrait": 6462,
      "AY": 6463,
      "▁euros": 6464,
      "▁ey": 6465,
      "▁strateg": 6466,
      "iddle": 6467,
      "▁domaine": 6468,
      "▁découvrir": 6469,
      "▁later": 6470,
      "parent": 6471,
      "a\n": 6472,
      "defin": 6473,
      ".n": 6474,
      "▁commenc": 6475,
      "▁micro": 6476,
      "▁distance": 6477,
      "▁électron": 6478,
      "ving": 6479,
      "▁David": 6480,
      "VER": 6481,
      "bes": 6482,
      "▁quick": 6483,
      "▁fit": 6484,
      "▁secteur": 6485,
      "▁Up": 6486,
      "▁Plus": 6487,
      "-N": 6488,
      "▁Int": 6489,
      "▁fonctionnement": 6490,
      "_{\\": 6491,
      "onnes": 6492,
      "\nCe": 6493,
      "oupe": 6494,
      "ourse": 6495,
      "ifier": 6496,
      "atory": 6497,
      "```\n\n": 6498,
      "▁consente": 6499,
      "▁effet,": 6500,
      "▁wait": 6501,
      "graph": 6502,
      "▁Sun": 6503,
      "▁suivre": 6504,
      "▁vert": 6505,
      "▁Group": 6506,
      "▁Ben": 6507,
      "▁Centre": 6508,
      "▁COM": 6509,
      "▁attention": 6510,
      "▁@Override\n": 6511,
      "/b": 6512,
      "▁chef": 6513,
      "▁adop": 6514,
      "▁security": 6515,
      "#include": 6516,
      "▁phys": 6517,
      "▁},": 6518,
      "▁software": 6519,
      "▁elements": 6520,
      "▁qu’on": 6521,
      "▁Ter": 6522,
      "ages,": 6523,
      "CI": 6524,
      "▁fort": 6525,
      "ini": 6526,
      "▁vac": 6527,
      "▁months": 6528,
      "▁directement": 6529,
      "▁agric": 6530,
      "▁ci-dess": 6531,
      "END": 6532,
      "ori": 6533,
      "▁mi": 6534,
      "Tra": 6535,
      "▁Twitter": 6536,
      "▁song": 6537,
      "\nIl": 6538,
      "▁None,\n": 6539,
      "▁building": 6540,
      "\n\n\nInput\n\n": 6541,
      "ennes": 6542,
      "▁refer": 6543,
      "inte": 6544,
      "▁guerre": 6545,
      "▁\t": 6546,
      "▁features": 6547,
      "MA": 6548,
      "othè": 6549,
      "▁bénéfic": 6550,
      "quare": 6551,
      "s=": 6552,
      "▁excell": 6553,
      "ilipp": 6554,
      "▁Inst": 6555,
      "▁France,": 6556,
      "▁told": 6557,
      "▁subject": 6558,
      "ouch": 6559,
      "▁mesures": 6560,
      "iding": 6561,
      "▁cuis": 6562,
      "▁Rép": 6563,
      "▁particulier": 6564,
      "ques,": 6565,
      "venue": 6566,
      "▁senti": 6567,
      "rypt": 6568,
      "](https://github.com/": 6569,
      "▁pil": 6570,
      "ensive": 6571,
      "auche": 6572,
      "google": 6573,
      "▁(L": 6574,
      "▁enter": 6575,
      "author": 6576,
      "▁l'éc": 6577,
      "▁jeux": 6578,
      "Image": 6579,
      "▁Public": 6580,
      "▁expos": 6581,
      "▁lif": 6582,
      "▁dossi": 6583,
      "PR": 6584,
      "▁device": 6585,
      "▁saison": 6586,
      "▁\"I": 6587,
      "▁the\n": 6588,
      "VID": 6589,
      "▁vu": 6590,
      "▁cond": 6591,
      "▁Bri": 6592,
      "▁découver": 6593,
      "▁choisir": 6594,
      "oved": 6595,
      "▁gros": 6596,
      "▁Black": 6597,
      "uid": 6598,
      "QL": 6599,
      "▁aliment": 6600,
      "▁journal": 6601,
      "IO": 6602,
      "x.": 6603,
      "▁Du": 6604,
      "▁time,": 6605,
      "▁responsable": 6606,
      "ledge": 6607,
      "▁miss": 6608,
      "ер": 6609,
      "sum": 6610,
      "▁maî": 6611,
      "▁according": 6612,
      "PO": 6613,
      "ifs": 6614,
      "▁Part": 6615,
      "ospital": 6616,
      "▁plutôt": 6617,
      "Base": 6618,
      "rm": 6619,
      "▁bad": 6620,
      "▁comprendre": 6621,
      "▁tom": 6622,
      "){\n": 6623,
      "▁ID": 6624,
      "ief": 6625,
      "▁hommes": 6626,
      "▁af": 6627,
      "▁risque": 6628,
      "light": 6629,
      "aume": 6630,
      "as.": 6631,
      "uman": 6632,
      "letter": 6633,
      "it,": 6634,
      "{\"": 6635,
      "\\\n\\x": 6636,
      "us.": 6637,
      "▁width": 6638,
      "▁News": 6639,
      "▁lequel": 6640,
      "▁watch": 6641,
      "cember": 6642,
      "▁pair": 6643,
      "▁member": 6644,
      "gn": 6645,
      "uels": 6646,
      "berg": 6647,
      "▁added": 6648,
      ".\n\nIn": 6649,
      "▁celles": 6650,
      "▁LES": 6651,
      "ael": 6652,
      "▁Arch": 6653,
      "▁President": 6654,
      "ffer": 6655,
      "UB": 6656,
      "isée": 6657,
      "▁и": 6658,
      "▁l’A": 6659,
      "▁Di": 6660,
      "otype": 6661,
      "▁pén": 6662,
      "▁arriv": 6663,
      "ne,": 6664,
      "}\n\n\t": 6665,
      "▁rencontre": 6666,
      "▁range(": 6667,
      "onomie": 6668,
      "▁rele": 6669,
      "▁similar": 6670,
      "../../": 6671,
      "▁confirm": 6672,
      "▁appropri": 6673,
      "▁April": 6674,
      "▁inj": 6675,
      "▁bord": 6676,
      "ore.": 6677,
      "▁August": 6678,
      "▁\"The": 6679,
      "▁pick": 6680,
      "▁half": 6681,
      "▁réf": 6682,
      "IF": 6683,
      "force": 6684,
      "!\n": 6685,
      "INE": 6686,
      "A.": 6687,
      "ured": 6688,
      "▁agree": 6689,
      "▁Us": 6690,
      "▁easy": 6691,
      "ottom": 6692,
      "ills": 6693,
      "'d": 6694,
      "upy": 6695,
      "▁hors": 6696,
      "▁SE": 6697,
      "▁plus,": 6698,
      "resource": 6699,
      "▁(R": 6700,
      "_L": 6701,
      "▁True,\n": 6702,
      "▁CE": 6703,
      "▁bool": 6704,
      "▁l’utilisateur": 6705,
      "▁terme": 6706,
      "▁Champ": 6707,
      "▁<a": 6708,
      "▁J.": 6709,
      "\nd": 6710,
      "▁membre": 6711,
      "res,": 6712,
      "▁(T": 6713,
      "▁don": 6714,
      "fully": 6715,
      "▁States": 6716,
      "▁+\n": 6717,
      "ABLE": 6718,
      "activité": 6719,
      "▁plaisir": 6720,
      "▁Paris,": 6721,
      "ustry": 6722,
      "iences": 6723,
      "intérêt": 6724,
      "\nL'": 6725,
      "valuation": 6726,
      "érature": 6727,
      "▁succ": 6728,
      "mic": 6729,
      "▁énerg": 6730,
      "▁OF": 6731,
      "md": 6732,
      "▁improve": 6733,
      "▁perman": 6734,
      "▁None\n": 6735,
      "tection": 6736,
      ":\"": 6737,
      "▁salariés": 6738,
      "▁n'a": 6739,
      "▁/*": 6740,
      "▁recomm": 6741,
      "▁meilleure": 6742,
      "▁yet": 6743,
      "nelle": 6744,
      "▁Tour": 6745,
      "▁documents": 6746,
      "kn": 6747,
      "ctober": 6748,
      "▁.\n\n": 6749,
      "▁various": 6750,
      "▁capit": 6751,
      "Buff": 6752,
      "▁``": 6753,
      "▁);\n": 6754,
      "▁official": 6755,
      "▁patients": 6756,
      "Builder": 6757,
      "yper": 6758,
      "zer": 6759,
      "▁Ver": 6760,
      "atrix": 6761,
      "▁taken": 6762,
      "▁Tim": 6763,
      "▁l'ad": 6764,
      "CA": 6765,
      "▁éléments": 6766,
      "▁Her": 6767,
      "ablement": 6768,
      "▁devez": 6769,
      "ycl": 6770,
      "▁étr": 6771,
      "▁libre": 6772,
      "unt": 6773,
      "ops": 6774,
      "▁death": 6775,
      "export": 6776,
      "-pro": 6777,
      "agnos": 6778,
      "▁AR": 6779,
      "▁Pierre": 6780,
      "▁souhaitez": 6781,
      "▁entire": 6782,
      "Button": 6783,
      "day,": 6784,
      "ire,": 6785,
      "econd": 6786,
      "izer": 6787,
      "▁training": 6788,
      "▁concept": 6789,
      "event": 6790,
      "▁forward": 6791,
      "▁lut": 6792,
      "▁l’av": 6793,
      "▁written": 6794,
      ".\nL’": 6795,
      "ins,": 6796,
      "Fl": 6797,
      "tep": 6798,
      "ennent": 6799,
      "EST": 6800,
      "▁Austral": 6801,
      "occasion": 6802,
      "Status": 6803,
      "▁grands": 6804,
      "▁civil": 6805,
      "▁band": 6806,
      "xy": 6807,
      "Stream": 6808,
      "ро": 6809,
      "▁légales": 6810,
      "py": 6811,
      "▁{\n\t\t\t": 6812,
      "=True": 6813,
      "pecially": 6814,
      "▁High": 6815,
      "▁changes": 6816,
      "▁mix": 6817,
      "▁Test": 6818,
      "charg": 6819,
      "onner": 6820,
      "térieur": 6821,
      "a's": 6822,
      "▁die": 6823,
      "▁\"P": 6824,
      "▁aider": 6825,
      "context": 6826,
      "ailleurs": 6827,
      "rew": 6828,
      "width": 6829,
      "▁heart": 6830,
      "▁Prem": 6831,
      "▁War": 6832,
      "TH": 6833,
      "▁répond": 6834,
      "▁choose": 6835,
      "▁J'": 6836,
      "▁MO": 6837,
      "\n[": 6838,
      "▁establ": 6839,
      "▁volont": 6840,
      "▁chance": 6841,
      "▁House": 6842,
      "▁peint": 6843,
      "▁pied": 6844,
      "ibil": 6845,
      ".\nWe": 6846,
      "▁distribution": 6847,
      "▁blo": 6848,
      "epuis": 6849,
      "▁issues": 6850,
      "▁innov": 6851,
      "anges": 6852,
      "origine": 6853,
      "vec": 6854,
      "oon": 6855,
      "pped": 6856,
      "rime": 6857,
      "abord": 6858,
      "▁mouve": 6859,
      "▁Health": 6860,
      "uillez": 6861,
      "umes": 6862,
      "▁energy": 6863,
      "▁others": 6864,
      "▁effective": 6865,
      "usse": 6866,
      "-V": 6867,
      "▁Jac": 6868,
      "ttp": 6869,
      "irl": 6870,
      "an.": 6871,
      "▁justice": 6872,
      "agner": 6873,
      "CP": 6874,
      "▁significant": 6875,
      "▁dynam": 6876,
      "▁copy": 6877,
      "enez": 6878,
      "EY": 6879,
      "L'": 6880,
      "▁type:": 6881,
      "ainer": 6882,
      "inn": 6883,
      "▁ball": 6884,
      "▁œuvre": 6885,
      "▁|\n|": 6886,
      "temps": 6887,
      "▁works": 6888,
      "▁adapt": 6889,
      "▁if(": 6890,
      "▁référence": 6891,
      "▁repor": 6892,
      "▁sociaux": 6893,
      "elling": 6894,
      ".\nIt": 6895,
      "▁logiciel": 6896,
      "omp": 6897,
      "ological": 6898,
      "CO": 6899,
      "▁ap": 6900,
      "null": 6901,
      "AGE": 6902,
      "▁soient": 6903,
      "▁surv": 6904,
      "▁believe": 6905,
      "issez": 6906,
      "▁pi": 6907,
      "ications": 6908,
      "ère,": 6909,
      "▁announ": 6910,
      "ternal": 6911,
      "▁mand": 6912,
      "Ins": 6913,
      "tivity": 6914,
      ".model": 6915,
      "▁recommand": 6916,
      "▁existe": 6917,
      "▁rob": 6918,
      "▁achie": 6919,
      "zy": 6920,
      "État": 6921,
      "pload": 6922,
      "▁européenne": 6923,
      "▁student": 6924,
      "▁aille": 6925,
      "sl": 6926,
      "▁Robert": 6927,
      "▁war": 6928,
      "▁minist": 6929,
      "ón": 6930,
      "aset": 6931,
      "elt": 6932,
      "▁ouver": 6933,
      "cite": 6934,
      "onsieur": 6935,
      "▁jurid": 6936,
      "From": 6937,
      "▁English": 6938,
      "▁equal": 6939,
      "angle": 6940,
      "▁aujourd’hui": 6941,
      "▁July": 6942,
      "▁projets": 6943,
      "_key": 6944,
      "ba": 6945,
      "tiful": 6946,
      "cd": 6947,
      "SP": 6948,
      "\\xd": 6949,
      "▁gens": 6950,
      "▁sn": 6951,
      "▁jusqu’à": 6952,
      "IA": 6953,
      "ger.": 6954,
      "hing": 6955,
      "▁www": 6956,
      "ité.": 6957,
      "apache": 6958,
      "▁Gén": 6959,
      "▁@return": 6960,
      "▁AU": 6961,
      "▁vérif": 6962,
      "ans,": 6963,
      "▁catégorie": 6964,
      "heck": 6965,
      "▁files": 6966,
      "▁stratég": 6967,
      "né": 6968,
      "▁groupes": 6969,
      "▁general": 6970,
      "▁received": 6971,
      "\nSu": 6972,
      "▁Nord": 6973,
      "▁lines": 6974,
      "\nK": 6975,
      "▁petits": 6976,
      ".create": 6977,
      "▁[]\n": 6978,
      ".L": 6979,
      "▁Return": 6980,
      "▁float": 6981,
      "▁Après": 6982,
      "▁о": 6983,
      "▁personnalis": 6984,
      "/v": 6985,
      "▁recent": 6986,
      "▁height": 6987,
      "tructure": 6988,
      "irection": 6989,
      "\nBonjour": 6990,
      "eck": 6991,
      "▁shall": 6992,
      "orde": 6993,
      "entions": 6994,
      "lections": 6995,
      "char": 6996,
      "\nRecher": 6997,
      "(data": 6998,
      "▁objet": 6999,
      "▁mut": 7000,
      "audi": 7001,
      "-H": 7002,
      "▁almost": 7003,
      "▁__init__": 7004,
      "▁nuit": 7005,
      "▁href=\"": 7006,
      "▁See": 7007,
      "▁parfois": 7008,
      "ige": 7009,
      "▁Work": 7010,
      "au,": 7011,
      "\nAcc": 7012,
      "▁His": 7013,
      "child": 7014,
      "▁popular": 7015,
      "status": 7016,
      "te.": 7017,
      "T,": 7018,
      "▁territoire": 7019,
      "▁Our": 7020,
      "▁window": 7021,
      "▁Class": 7022,
      "▁charact": 7023,
      "access": 7024,
      "aging": 7025,
      "▁professionnels": 7026,
      "▁taille": 7027,
      "itial": 7028,
      "piration": 7029,
      "▁maintenant": 7030,
      "▁belle": 7031,
      "▁semble": 7032,
      "▁taking": 7033,
      "host": 7034,
      "▁needed": 7035,
      "_arg": 7036,
      "▁permettant": 7037,
      "▁responsi": 7038,
      "▁permettent": 7039,
      "tity": 7040,
      "▁et,": 7041,
      "▁modèle": 7042,
      "_value": 7043,
      "rais": 7044,
      "▁marketing": 7045,
      ".\n\nInput\n\n": 7046,
      "▁package": 7047,
      ".D": 7048,
      "▁Object": 7049,
      "erez": 7050,
      "▁station": 7051,
      "mblée": 7052,
      "eler": 7053,
      "tise": 7054,
      "istory": 7055,
      "ile,": 7056,
      "▁heure": 7057,
      "URE": 7058,
      "iennent": 7059,
      "ichel": 7060,
      "_col": 7061,
      "Typ": 7062,
      "issements": 7063,
      "▁separ": 7064,
      "Read": 7065,
      "▁modifier": 7066,
      "ashing": 7067,
      "(S": 7068,
      "\nDe": 7069,
      "or.": 7070,
      "▁Cam": 7071,
      "▁Bi": 7072,
      "chedule": 7073,
      "▁aspect": 7074,
      "s,\n": 7075,
      "??": 7076,
      "▁tiers": 7077,
      "▁cab": 7078,
      "▁office": 7079,
      "▁sout": 7080,
      "▁shows": 7081,
      "anced": 7082,
      "New": 7083,
      "allback": 7084,
      "èrent": 7085,
      "▁vot": 7086,
      "▁Sim": 7087,
      "▁caractère": 7088,
      "Off": 7089,
      "▁PC": 7090,
      "▁livraison": 7091,
      "▁Bas": 7092,
      "onder": 7093,
      "▁round": 7094,
      "charge": 7095,
      "./": 7096,
      "térie": 7097,
      "▁recogn": 7098,
      "▁couleur": 7099,
      "▁Conc": 7100,
      "rown": 7101,
      "▁mys": 7102,
      "Union": 7103,
      "▁/>": 7104,
      "▁\\n": 7105,
      "êmes": 7106,
      "▁relationship": 7107,
      "▁management": 7108,
      "▁I've": 7109,
      "</a>": 7110,
      "ivement": 7111,
      "el.": 7112,
      "▁Add": 7113,
      "▁Cong": 7114,
      "▁assur": 7115,
      "▁proper": 7116,
      "headers": 7117,
      "▁guide": 7118,
      "▁additional": 7119,
      "▁rencontr": 7120,
      "▁bra": 7121,
      "▁pret": 7122,
      "onnect": 7123,
      "▁rate": 7124,
      "Number": 7125,
      "_group": 7126,
      "▁European": 7127,
      "▁procédure": 7128,
      "▁Park": 7129,
      "▁village": 7130,
      "▁méc": 7131,
      "▁Alex": 7132,
      "uth": 7133,
      "▁provides": 7134,
      "Point": 7135,
      "▁products": 7136,
      "Instance": 7137,
      "onie": 7138,
      "▁préf": 7139,
      "▁concasseur": 7140,
      "\nQu": 7141,
      "▁running": 7142,
      "▁Ve": 7143,
      "▁mur": 7144,
      "inf": 7145,
      "ublié": 7146,
      ".to": 7147,
      "▁normal": 7148,
      "▁java.util.": 7149,
      "▁lecture": 7150,
      "▁ordin": 7151,
      "▁immobil": 7152,
      "uls": 7153,
      "Ret": 7154,
      "▁Avec": 7155,
      "▁AL": 7156,
      "hait": 7157,
      "anks": 7158,
      "▁ai": 7159,
      "▁tag": 7160,
      "▁qu’un": 7161,
      "▁Ren": 7162,
      "▁Ly": 7163,
      "ips": 7164,
      "ique.": 7165,
      ".data": 7166,
      "▁l’accès": 7167,
      "ations.": 7168,
      "▁select": 7169,
      "igner": 7170,
      "▁perd": 7171,
      ".join": 7172,
      "ESS": 7173,
      "▁internation": 7174,
      "▁takes": 7175,
      "dated": 7176,
      "▁compagn": 7177,
      "▁scientif": 7178,
      "▁frame": 7179,
      "anim": 7180,
      "▁rather": 7181,
      "plot": 7182,
      "omet": 7183,
      "▁viv": 7184,
      "▁journée": 7185,
      "▁appare": 7186,
      "ico": 7187,
      "arp": 7188,
      "_version": 7189,
      "ence.": 7190,
      "▁Some": 7191,
      "oure": 7192,
      "▁mas": 7193,
      "▁(G": 7194,
      "▁glob": 7195,
      "▁instr": 7196,
      "éch": 7197,
      "hel": 7198,
      "tempor": 7199,
      "▁tel": 7200,
      "\nNom": 7201,
      "▁(\"": 7202,
      "iet": 7203,
      "▁Fri": 7204,
      "▁repro": 7205,
      "tural": 7206,
      "▁blanc": 7207,
      "▁affect": 7208,
      "▁exactly": 7209,
      "▁deg": 7210,
      "hentic": 7211,
      "▁Cook": 7212,
      "iteur": 7213,
      "▁complete": 7214,
      "▁fail": 7215,
      "▁(en": 7216,
      ".png": 7217,
      "▁instead": 7218,
      "▁Mor": 7219,
      "▁Sy": 7220,
      "onses": 7221,
      "itif": 7222,
      "▁Of": 7223,
      "-T": 7224,
      "endant,": 7225,
      "oke": 7226,
      "▁age": 7227,
      "tiers": 7228,
      "tissement": 7229,
      "▁qu'elle": 7230,
      "ages.": 7231,
      "remove": 7232,
      "▁stockage": 7233,
      "ativ": 7234,
      "▁perfect": 7235,
      "▁numérique": 7236,
      "dict": 7237,
      "▁Dr": 7238,
      "▁attack": 7239,
      "lam": 7240,
      "▁NOT": 7241,
      "▁throws": 7242,
      "na": 7243,
      "Source": 7244,
      "▁includes": 7245,
      "▁Prof": 7246,
      "▁trying": 7247,
      "▁road": 7248,
      "AIL": 7249,
      "▁await": 7250,
      "▁deb": 7251,
      "▁commerce": 7252,
      "▁souhait": 7253,
      "▁politi": 7254,
      "▁Tous": 7255,
      "idents": 7256,
      "prit": 7257,
      "u.": 7258,
      "gorith": 7259,
      "nements": 7260,
      "inal": 7261,
      "▁December": 7262,
      "roller": 7263,
      "▁draw": 7264,
      "▁Post": 7265,
      "(int,": 7266,
      "s.\n": 7267,
      "âtre": 7268,
      "oise": 7269,
      "oom": 7270,
      "▁ancien": 7271,
      "▁noir": 7272,
      "▁Let": 7273,
      "▁Set": 7274,
      "▁km": 7275,
      "▁sequence": 7276,
      "▁stay": 7277,
      "▁Sw": 7278,
      "frame": 7279,
      "pg": 7280,
      "ly.": 7281,
      "▁demander": 7282,
      "▁Type": 7283,
      "ordre": 7284,
      "▁hope": 7285,
      "▁November": 7286,
      "=False": 7287,
      "AV": 7288,
      "urope": 7289,
      "▁angl": 7290,
      "cil": 7291,
      "▁répondre": 7292,
      "▁possibilité": 7293,
      "bruary": 7294,
      "▁increase": 7295,
      "_j": 7296,
      "analy": 7297,
      "▁choses": 7298,
      "What": 7299,
      "▁tal": 7300,
      "INS": 7301,
      "utive": 7302,
      "xx": 7303,
      "ih": 7304,
      "▁financial": 7305,
      "pir": 7306,
      "▁Pas": 7307,
      "(function": 7308,
      "ellow": 7309,
      "énerg": 7310,
      "▁Tur": 7311,
      "▁Direct": 7312,
      ".\nCom": 7313,
      "ention": 7314,
      "outes": 7315,
      "ambda": 7316,
      "▁navigateur": 7317,
      "▁s’agit": 7318,
      "filename": 7319,
      "\\s": 7320,
      "IER": 7321,
      "▁vacc": 7322,
      "ançois": 7323,
      "aires.": 7324,
      "uire": 7325,
      "▁policy": 7326,
      "▁September": 7327,
      "▁jusqu'à": 7328,
      "iée": 7329,
      "▁ul": 7330,
      "▁plein": 7331,
      "▁science": 7332,
      "ipeline": 7333,
      "▁polic": 7334,
      "</td": 7335,
      "▁conseils": 7336,
      "▁doll": 7337,
      "▁rac": 7338,
      "▁party": 7339,
      "▁soul": 7340,
      "▁disponibles": 7341,
      "▁navigation": 7342,
      "▁vig": 7343,
      "▁dam": 7344,
      "▁Your": 7345,
      "▁Lim": 7346,
      "ilosoph": 7347,
      "za": 7348,
      "▁montr": 7349,
      "overn": 7350,
      "▁send": 7351,
      "ante,": 7352,
      "▁veut": 7353,
      "▁devient": 7354,
      "▁(int": 7355,
      "artager": 7356,
      "▁October": 7357,
      "▁Bou": 7358,
      "inéma": 7359,
      "▁Met": 7360,
      "▁bâti": 7361,
      "ford": 7362,
      "osc": 7363,
      "\n\nLiens": 7364,
      "▁lesqu": 7365,
      "▁touch": 7366,
      "▁quite": 7367,
      "▁held": 7368,
      "////////////////": 7369,
      "▁]": 7370,
      "▁empl": 7371,
      "▁ST": 7372,
      "autor": 7373,
      "▁API": 7374,
      "▁terms": 7375,
      "omes": 7376,
      "▁rights": 7377,
      "\n\t\t\t": 7378,
      "\nPl": 7379,
      "Run": 7380,
      "▁saf": 7381,
      "▁risk": 7382,
      "▁chacun": 7383,
      "Manager": 7384,
      "▁délai": 7385,
      "▁likely": 7386,
      "(s)": 7387,
      "Listener": 7388,
      "▁municip": 7389,
      "Method": 7390,
      "\nEx": 7391,
      "aker": 7392,
      "▁(f": 7393,
      "s'": 7394,
      "▁connection": 7395,
      "values": 7396,
      "End": 7397,
      "▁sen": 7398,
      "▁liber": 7399,
      "▁générale": 7400,
      "Null": 7401,
      "▁player": 7402,
      "▁someone": 7403,
      "▁trib": 7404,
      "irec": 7405,
      "▁built": 7406,
      "▁simplement": 7407,
      "▁events": 7408,
      "▁Rem": 7409,
      "{{": 7410,
      "aliforn": 7411,
      "▁upon": 7412,
      "▁Canad": 7413,
      "▁that,": 7414,
      "weet": 7415,
      "otte": 7416,
      "établ": 7417,
      "▁fé": 7418,
      "▁\"D": 7419,
      "▁peut-être": 7420,
      "▁everything": 7421,
      "▁Louis": 7422,
      "len": 7423,
      "▁vient": 7424,
      "lor": 7425,
      "▁especially": 7426,
      "▁travel": 7427,
      "isted": 7428,
      "actez": 7429,
      "▁kwarg": 7430,
      "undi": 7431,
      "▁Law": 7432,
      "▁genre": 7433,
      "pris": 7434,
      "▁ground": 7435,
      "▁staff": 7436,
      "ho": 7437,
      "ormal": 7438,
      "wood": 7439,
      "C,": 7440,
      "aire.": 7441,
      "▁rich": 7442,
      "го": 7443,
      "▁pain": 7444,
      "▁van": 7445,
      "▁(\n": 7446,
      "core": 7447,
      "▁err": 7448,
      "uild": 7449,
      "▁decision": 7450,
      "▁William": 7451,
      "cel": 7452,
      "▁moyens": 7453,
      "tify": 7454,
      "▁currently": 7455,
      "▁hours": 7456,
      "▁aurait": 7457,
      "_name:": 7458,
      "▁necessary": 7459,
      "▁clean": 7460,
      "property": 7461,
      "ен": 7462,
      "GE": 7463,
      "rist": 7464,
      ".\nJe": 7465,
      "AIT": 7466,
      "ce,": 7467,
      "▁political": 7468,
      "▁attend": 7469,
      "CS": 7470,
      "ure.": 7471,
      "▁King": 7472,
      "▁Att": 7473,
      "tish": 7474,
      "\\xa": 7475,
      "▁Now": 7476,
      "▁loin": 7477,
      "rich": 7478,
      "▁dra": 7479,
      "-E": 7480,
      "▁php": 7481,
      "▁d’A": 7482,
      "ONT": 7483,
      "▁\"L": 7484,
      "▁i-th": 7485,
      "▁card": 7486,
      "hors": 7487,
      "\nUne": 7488,
      "ux,": 7489,
      "yr": 7490,
      "Content": 7491,
      "▁généralement": 7492,
      "ocket": 7493,
      "▁Gal": 7494,
      "▁Dec": 7495,
      "▁\"B": 7496,
      "ano": 7497,
      "▁alle": 7498,
      "s)\n": 7499,
      "▁apply": 7500,
      "search": 7501,
      "▁white": 7502,
      "▁wor": 7503,
      ".\nW": 7504,
      "▁X...": 7505,
      "то": 7506,
      "▁Rich": 7507,
      "▁suivi": 7508,
      "▁inside": 7509,
      "_config": 7510,
      "▁cœur": 7511,
      "inet": 7512,
      "▁élev": 7513,
      "▁Français": 7514,
      "▁mid": 7515,
      "▁princi": 7516,
      "local": 7517,
      "Print": 7518,
      "▁Noël": 7519,
      "▁mém": 7520,
      "▁peux": 7521,
      "ideo": 7522,
      "sv": 7523,
      "▁Ev": 7524,
      "height": 7525,
      "ter.": 7526,
      "\nVoir": 7527,
      "▁mentionn": 7528,
      "▁Flor": 7529,
      "main": 7530,
      "ios": 7531,
      "▁encou": 7532,
      "▁investig": 7533,
      "ining": 7534,
      "▁AD": 7535,
      "registre": 7536,
      "lice": 7537,
      "▁isn't": 7538,
      "_IN": 7539,
      "ats-Unis": 7540,
      "ège": 7541,
      "▁durant": 7542,
      "▁Stre": 7543,
      "▁platform": 7544,
      "▁permis": 7545,
      "▁Mat": 7546,
      "();": 7547,
      "▁règles": 7548,
      "état": 7549,
      "▁utilisateur": 7550,
      "èse": 7551,
      ".\n\nA": 7552,
      "nb": 7553,
      "▁~": 7554,
      "▁compter": 7555,
      "▁répar": 7556,
      "-year": 7557,
      "▁flow": 7558,
      "▁commit": 7559,
      "▁Rel": 7560,
      "\nVotre": 7561,
      "▁disp": 7562,
      "▁wanted": 7563,
      "-based": 7564,
      "lear": 7565,
      "▁tor": 7566,
      "$,": 7567,
      "▁économique": 7568,
      "istor": 7569,
      "▁accep": 7570,
      "▁besoins": 7571,
      "▁Est": 7572,
      "▁case,": 7573,
      "▁crédit": 7574,
      "▁null)": 7575,
      "▁dén": 7576,
      "▁langue": 7577,
      ".\n\nOutput\n\n": 7578,
      "-on": 7579,
      "▁County": 7580,
      "▁rapidement": 7581,
      "Pars": 7582,
      "ouvrez": 7583,
      "▁Vol": 7584,
      "▁musique": 7585,
      "().get": 7586,
      "ão": 7587,
      ")}": 7588,
      "▁ful": 7589,
      "▁reach": 7590,
      "ishing": 7591,
      "▁joint": 7592,
      "ли": 7593,
      "▁behind": 7594,
      "s.pop": 7595,
      "▁vote": 7596,
      "en't": 7597,
      "':\n": 7598,
      "▁réseaux": 7599,
      "▁salarié": 7600,
      "&&": 7601,
      "fa": 7602,
      "HT": 7603,
      "Prov": 7604,
      "\r\n\t\t": 7605,
      "▁travaill": 7606,
      "ébec": 7607,
      "▁puis-je": 7608,
      "▁D’": 7609,
      "▁engine": 7610,
      "▁д": 7611,
      "▁UK": 7612,
      "ato": 7613,
      "anning": 7614,
      "elle,": 7615,
      "ptional[": 7616,
      "osed": 7617,
      "self": 7618,
      "▁processus": 7619,
      "▁decl": 7620,
      "ridge": 7621,
      "▁fisc": 7622,
      "ural": 7623,
      "▁salle": 7624,
      "osph": 7625,
      "▁Vo": 7626,
      "iper": 7627,
      "▁dipl": 7628,
      "▁companies": 7629,
      "▁parmi": 7630,
      "Resource": 7631,
      "uts": 7632,
      "▁related": 7633,
      "▁cross": 7634,
      "▁histoire": 7635,
      "▁print(\"": 7636,
      "▁IP": 7637,
      "base": 7638,
      "▁rempl": 7639,
      "▁ensure": 7640,
      "zen": 7641,
      "▁Pre": 7642,
      "atric": 7643,
      "▁l’app": 7644,
      "▁collabor": 7645,
      "AND": 7646,
      "upyter": 7647,
      "▁sûr": 7648,
      "▁Site": 7649,
      "▁réaliser": 7650,
      "oring": 7651,
      "▁l'arr": 7652,
      "uin": 7653,
      "]]": 7654,
      "ais,": 7655,
      "omain": 7656,
      "ка": 7657,
      "ot,": 7658,
      "▁idea": 7659,
      "▁**kwarg": 7660,
      "▁loss": 7661,
      "vant": 7662,
      "▁lower": 7663,
      "one,": 7664,
      "onces": 7665,
      "▁ast": 7666,
      "▁assist": 7667,
      "▁cong": 7668,
      "▁photograph": 7669,
      "▁uniquement": 7670,
      "▁gaz": 7671,
      ".\nVous": 7672,
      "▁Super": 7673,
      "▁volume": 7674,
      "IX": 7675,
      "▁Société": 7676,
      "▁paiement": 7677,
      "bs": 7678,
      "▁résultat": 7679,
      ")\n\t": 7680,
      "▁Services": 7681,
      "▁cas,": 7682,
      "ctions": 7683,
      "▁hyd": 7684,
      "▁secret": 7685,
      "▁que,": 7686,
      "▁n’y": 7687,
      "▁please": 7688,
      "▁broy": 7689,
      "▁Thom": 7690,
      "employ": 7691,
      "=[": 7692,
      "▁expression": 7693,
      "atifs": 7694,
      "olitique": 7695,
      "▁operation": 7696,
      "▁urb": 7697,
      "OG": 7698,
      "▁Cré": 7699,
      "code>": 7700,
      "istic": 7701,
      "rement": 7702,
      "ii": 7703,
      "▁argument": 7704,
      "▁concl": 7705,
      "▁tels": 7706,
      "▁mul": 7707,
      "/**\n": 7708,
      "▁appe": 7709,
      "-up": 7710,
      "▁football": 7711,
      ".\n-": 7712,
      "aste": 7713,
      "_output": 7714,
      "Block": 7715,
      "idden": 7716,
      "onnées": 7717,
      "ercice": 7718,
      "\\end{": 7719,
      "private": 7720,
      "▁rendez-vous": 7721,
      "▁recevoir": 7722,
      "▁occup": 7723,
      "'hui": 7724,
      "▁purch": 7725,
      "ida": 7726,
      "▁potenti": 7727,
      "ualités": 7728,
      "▁fire": 7729,
      "mun": 7730,
      "▁comple": 7731,
      "▁République": 7732,
      "▁clin": 7733,
      "▁compe": 7734,
      "▁site,": 7735,
      "ained": 7736,
      "rong": 7737,
      "▁guar": 7738,
      "▁board": 7739,
      "▁délég": 7740,
      "ao": 7741,
      "▁outside": 7742,
      "rés": 7743,
      "▁measure": 7744,
      ".\n\nS": 7745,
      "ORD": 7746,
      "▁A.": 7747,
      "fic": 7748,
      "mé": 7749,
      "▁asked": 7750,
      "▁présence": 7751,
      "▁From": 7752,
      "▁l’int": 7753,
      "▁propriét": 7754,
      "▁spor": 7755,
      "igration": 7756,
      "uccess": 7757,
      "▁sud": 7758,
      "▁plupart": 7759,
      "▁['": 7760,
      "AF": 7761,
      "▁cinq": 7762,
      "ir,": 7763,
      "▁industry": 7764,
      "p>": 7765,
      "static": 7766,
      "azure": 7767,
      "quire": 7768,
      "duced": 7769,
      "ected": 7770,
      "élection": 7771,
      "truct": 7772,
      "▁sam": 7773,
      "▁principal": 7774,
      "omin": 7775,
      "olf": 7776,
      "êche": 7777,
      "anie": 7778,
      "▁termes": 7779,
      "▁parts": 7780,
      "rt": 7781,
      "▁ferm": 7782,
      "▁AS": 7783,
      "................................": 7784,
      "(u": 7785,
      "itaires": 7786,
      "▁sym": 7787,
      "▁fant": 7788,
      "Web": 7789,
      "▁premiers": 7790,
      "▁d’app": 7791,
      "c,": 7792,
      "▁occasion": 7793,
      "▁adult": 7794,
      "▁attra": 7795,
      "oding": 7796,
      "\\r": 7797,
      "▁donné": 7798,
      "std::": 7799,
      "options": 7800,
      "▁Cre": 7801,
      "▁Note": 7802,
      "▁signal": 7803,
      "▁rock": 7804,
      "table": 7805,
      "▁Vis": 7806,
      "entrée": 7807,
      "▁roman": 7808,
      "▁prépar": 7809,
      "▁reç": 7810,
      "▁partager": 7811,
      "▁Lab": 7812,
      "▁archit": 7813,
      "leep": 7814,
      "TIC": 7815,
      "ons,": 7816,
      "\nSi": 7817,
      "▁conclus": 7818,
      "▁nothing": 7819,
      ".\n\nExamples": 7820,
      "anne": 7821,
      "▁coming": 7822,
      "▁Lors": 7823,
      "▁time.": 7824,
      "alie": 7825,
      "▁anything": 7826,
      "illed": 7827,
      "▁parameters": 7828,
      "▁Mil": 7829,
      "leq": 7830,
      "▁Vir": 7831,
      "ests": 7832,
      "OUT": 7833,
      "▁release": 7834,
      "iece": 7835,
      "olve": 7836,
      "ening": 7837,
      "Line": 7838,
      "▁Rou": 7839,
      "▁{'": 7840,
      "▁issu": 7841,
      "select": 7842,
      "▁higher": 7843,
      "Frame": 7844,
      "rows": 7845,
      "èles": 7846,
      "oli": 7847,
      "▁<NAME>": 7848,
      "ersonn": 7849,
      "▁probably": 7850,
      "alled": 7851,
      "──": 7852,
      "▁bul": 7853,
      "inct": 7854,
      "▁circul": 7855,
      "▁\\\n": 7856,
      "cipl": 7857,
      ".x": 7858,
      "stream": 7859,
      "▁propres": 7860,
      "ties.": 7861,
      "\n\"": 7862,
      "ôtel": 7863,
      "▁évé": 7864,
      "▁chiff": 7865,
      "▁régime": 7866,
      "pository": 7867,
      "▁fen": 7868,
      "▁included": 7869,
      "▁remove": 7870,
      "▁February": 7871,
      "see": 7872,
      "▁tém": 7873,
      "▁agré": 7874,
      "▁Notre": 7875,
      "elves": 7876,
      "▁terre": 7877,
      "DB": 7878,
      "▁Club": 7879,
      "▁>=": 7880,
      "Entity": 7881,
      "▁départ": 7882,
      "▁téléphone": 7883,
      "▁Then": 7884,
      ".\n\nN": 7885,
      "atrice": 7886,
      "aves": 7887,
      "▁friends": 7888,
      "▁stage": 7889,
      "▁(E": 7890,
      "Box": 7891,
      "▁Californ": 7892,
      "▁institu": 7893,
      "_N": 7894,
      "▁beautiful": 7895,
      "usement": 7896,
      "▁click": 7897,
      "Buffer": 7898,
      "▁ta": 7899,
      "▁uns": 7900,
      "ki": 7901,
      "stract": 7902,
      "-re": 7903,
      "atel": 7904,
      "▁became": 7905,
      "/j": 7906,
      "tempt": 7907,
      "▁simply": 7908,
      "${": 7909,
      "cy": 7910,
      "tick": 7911,
      "round": 7912,
      "SION": 7913,
      "Char": 7914,
      "▁weight": 7915,
      "asser": 7916,
      "conc": 7917,
      "▁décret": 7918,
      "▁(the": 7919,
      "Token": 7920,
      "/h": 7921,
      "▁Date": 7922,
      ".\nIf": 7923,
      "▁deep": 7924,
      "▁caractéris": 7925,
      "andard": 7926,
      "▁German": 7927,
      "isés": 7928,
      "▁Home": 7929,
      "Start": 7930,
      "▁fournir": 7931,
      "auth": 7932,
      "▁(H": 7933,
      "▁S.": 7934,
      "aper": 7935,
      "▁entry": 7936,
      "lymp": 7937,
      "▁download": 7938,
      "iving": 7939,
      "▁Book": 7940,
      "▁lett": 7941,
      "\\+": 7942,
      "▁obj": 7943,
      ".\nUn": 7944,
      "▁grandes": 7945,
      "▁remb": 7946,
      "▁led": 7947,
      "num": 7948,
      "like": 7949,
      "▁panier": 7950,
      ".\n\nInput\n\nThe": 7951,
      "frac{": 7952,
      "▁consentement": 7953,
      "▁living": 7954,
      "▁NO": 7955,
      "}\n\t\t": 7956,
      "▁chambre": 7957,
      "▁(l": 7958,
      "▁tard": 7959,
      "▁bus": 7960,
      "ossible": 7961,
      "▁franc": 7962,
      "irth": 7963,
      "Default": 7964,
      "est,": 7965,
      "orme": 7966,
      "<NAME>": 7967,
      "▁Prés": 7968,
      "▁esc": 7969,
      "▁aller": 7970,
      "cer": 7971,
      "a)": 7972,
      "▁interview": 7973,
      "▁los": 7974,
      "ract": 7975,
      "▁src": 7976,
      "aily": 7977,
      "▁Center": 7978,
      "-à": 7979,
      "▁Marie": 7980,
      "▁applications": 7981,
      "case": 7982,
      "▁III": 7983,
      "\n\nNote": 7984,
      "ederal": 7985,
      "compl": 7986,
      "group": 7987,
      "▁accepte": 7988,
      "▁merci": 7989,
      "▁Aff": 7990,
      "_tra": 7991,
      "▁users": 7992,
      "▁d'é": 7993,
      "tin": 7994,
      "▁potential": 7995,
      "▁affich": 7996,
      "▁Po": 7997,
      "tices": 7998,
      "▁m.get('": 7999,
      "▁sense": 8000,
      "onné": 8001,
      "ignes": 8002,
      "assword": 8003,
      "▁tir": 8004,
      "cons": 8005,
      "▁Union": 8006,
      "▁milieu": 8007,
      "▁feu": 8008,
      "▁Tri": 8009,
      "ints": 8010,
      "if(": 8011,
      "aine,": 8012,
      "cell": 8013,
      "▁rê": 8014,
      "▁Program": 8015,
      "oine": 8016,
      "▁figure": 8017,
      "▁absolu": 8018,
      "annot": 8019,
      "▁seems": 8020,
      "-sur": 8021,
      "model": 8022,
      "elta": 8023,
      "▁writing": 8024,
      "align": 8025,
      "▁)\n\n": 8026,
      "▁complément": 8027,
      "uns": 8028,
      "Oper": 8029,
      "▁nord": 8030,
      "▁leave": 8031,
      "ounts": 8032,
      "âteau": 8033,
      "auss": 8034,
      "iger": 8035,
      "Voir": 8036,
      "node": 8037,
      "▁changement": 8038,
      "Comp": 8039,
      "ouvelle": 8040,
      "Str": 8041,
      "▁First": 8042,
      "emb": 8043,
      "Ré": 8044,
      "▁concerne": 8045,
      "▁town": 8046,
      "▁Journal": 8047,
      "▁regular": 8048,
      "▁d’utilis": 8049,
      "ètre": 8050,
      "ja": 8051,
      "▁chemin": 8052,
      "▁bibli": 8053,
      "replace": 8054,
      "\nÀ": 8055,
      "▁Dieu": 8056,
      "ributes": 8057,
      "▁Ama": 8058,
      "▁liqu": 8059,
      "▁l’ensemble": 8060,
      ".\nOn": 8061,
      "iés": 8062,
      "▁fournisse": 8063,
      "▁envoy": 8064,
      "▁offers": 8065,
      "▁deliver": 8066,
      "périence": 8067,
      "itime": 8068,
      "▁Russi": 8069,
      "▁Isra": 8070,
      "▁decided": 8071,
      "enge": 8072,
      "▁determin": 8073,
      "▁str\n": 8074,
      "Layout": 8075,
      "▁et/": 8076,
      "▁scène": 8077,
      "▁AV": 8078,
      "▁banc": 8079,
      "▁Art": 8080,
      "TC": 8081,
      "▁plant": 8082,
      ".\nNous": 8083,
      "▁<=": 8084,
      "▁Ville": 8085,
      "▁d’en": 8086,
      "amour": 8087,
      "▁remplac": 8088,
      "RL": 8089,
      "▁independ": 8090,
      "▁dernières": 8091,
      "i-": 8092,
      "▁phase": 8093,
      "ruc": 8094,
      "▁u'": 8095,
      "ying": 8096,
      "▁Trump": 8097,
      "using": 8098,
      "▁scol": 8099,
      "ticip": 8100,
      "▁wall": 8101,
      "▁collect": 8102,
      "oie": 8103,
      "create": 8104,
      "▁particulièrement": 8105,
      "▁Windows": 8106,
      ")\r\n": 8107,
      "▁natural": 8108,
      "▁spirit": 8109,
      "▁problèmes": 8110,
      ".F": 8111,
      "▁idé": 8112,
      "▁symbol": 8113,
      "(v": 8114,
      "▁park": 8115,
      "▁technology": 8116,
      "ice,": 8117,
      "a:": 8118,
      "▁publication": 8119,
      "▁screen": 8120,
      "▁passé": 8121,
      "[j": 8122,
      "Gener": 8123,
      "érateur": 8124,
      "▁Hol": 8125,
      "▁somme": 8126,
      "▁ways": 8127,
      "▁Jack": 8128,
      "\nNos": 8129,
      "émie": 8130,
      "mt": 8131,
      "write": 8132,
      "URL": 8133,
      "Mode": 8134,
      "▁s'est": 8135,
      ")\nC": 8136,
      "▁aide": 8137,
      "ploit": 8138,
      "▁accès": 8139,
      "▁J’ai": 8140,
      "▁connaiss": 8141,
      "▁état": 8142,
      "▁matter": 8143,
      "▁panne": 8144,
      "▁chat": 8145,
      "▁presse": 8146,
      "▁words": 8147,
      "▁them.": 8148,
      "close": 8149,
      "onym": 8150,
      "Pre": 8151,
      "tively": 8152,
      "▁characters": 8153,
      "actur": 8154,
      ".\n\nLe": 8155,
      "\nNaissance": 8156,
      "-J": 8157,
      "▁associated": 8158,
      "▁register": 8159,
      "ins.": 8160,
      "▁vehic": 8161,
      "▁\"A": 8162,
      "▁Hen": 8163,
      "▁patient": 8164,
      "process": 8165,
      "▁réserve": 8166,
      "po": 8167,
      "▁wants": 8168,
      "▁everyone": 8169,
      "rét": 8170,
      "_sh": 8171,
      "template": 8172,
      "istry": 8173,
      "ourc": 8174,
      "▁CD": 8175,
      "▁derniers": 8176,
      "▁random": 8177,
      "empty": 8178,
      "▁Charles": 8179,
      "Ref": 8180,
      "▁digital": 8181,
      "▁retrouver": 8182,
      "▁[L": 8183,
      "▁Philipp": 8184,
      "ttes": 8185,
      "▁mail": 8186,
      "▁conten": 8187,
      "gar": 8188,
      "olic": 8189,
      "▁fast": 8190,
      "▁connaissance": 8191,
      "▁bound": 8192,
      "▁indép": 8193,
      "▁score": 8194,
      "▁ressources": 8195,
      "▁films": 8196,
      "uile": 8197,
      "Page": 8198,
      "▁meilleurs": 8199,
      "▁Cas": 8200,
      "▁Studi": 8201,
      "▁filter": 8202,
      "▁learning": 8203,
      "Load": 8204,
      "▁veux": 8205,
      "▁growth": 8206,
      "▁Arg": 8207,
      "▁[...]": 8208,
      "▁phpBB": 8209,
      "'.": 8210,
      ";\n}\n\n": 8211,
      "rab": 8212,
      "System": 8213,
      "▁ang": 8214,
      "▁configuration": 8215,
      "▁Laur": 8216,
      "▁reçu": 8217,
      "NULL": 8218,
      "ibilité": 8219,
      "▁Math": 8220,
      "den": 8221,
      "ise,": 8222,
      "ression": 8223,
      "▁Open": 8224,
      "▁aura": 8225,
      "▁published": 8226,
      "▁Rad": 8227,
      "▁et/ou": 8228,
      "▁part,": 8229,
      "▁Business": 8230,
      "▁details": 8231,
      "ALL": 8232,
      "pective": 8233,
      "titut": 8234,
      "OK": 8235,
      "▁json": 8236,
      "▁!\n": 8237,
      "▁rule": 8238,
      "▁Any": 8239,
      "▁obtenir": 8240,
      "ль": 8241,
      "▁Day": 8242,
      "ôme": 8243,
      "ptions": 8244,
      "▁|--": 8245,
      "▁dispar": 8246,
      "aç": 8247,
      "osted": 8248,
      "rale": 8249,
      "E,": 8250,
      "msg": 8251,
      "▁guarante": 8252,
      "Factory": 8253,
      "Equal": 8254,
      "and,": 8255,
      "▁games": 8256,
      "XX": 8257,
      "▁fonds": 8258,
      "▁<re": 8259,
      "▁domic": 8260,
      "▁considered": 8261,
      "merg": 8262,
      "▁activité": 8263,
      "s\"": 8264,
      "▁leading": 8265,
      "▁variable": 8266,
      "▁réglement": 8267,
      "merc": 8268,
      "fras": 8269,
      "ena": 8270,
      "izing": 8271,
      "alt": 8272,
      ".\n\nC": 8273,
      "ecurity": 8274,
      "▁pron": 8275,
      "▁Prix": 8276,
      "▁http://www.": 8277,
      "jupyter": 8278,
      "▁problems": 8279,
      "▁pattern": 8280,
      "▁Long": 8281,
      "prop": 8282,
      "ре": 8283,
      "ame>": 8284,
      "\n\n\nclass": 8285,
      "▁orient": 8286,
      "▁math": 8287,
      "▁prim": 8288,
      "ertain": 8289,
      "▁chron": 8290,
      "-en": 8291,
      "▁gas": 8292,
      "▁Tex": 8293,
      "label{": 8294,
      "▁suit": 8295,
      "▁laisser": 8296,
      "aqu": 8297,
      "▁act": 8298,
      "▁receive": 8299,
      "▁itself": 8300,
      "b.": 8301,
      "▁center": 8302,
      "▁telles": 8303,
      "▁allowed": 8304,
      "▁efficace": 8305,
      "▁responsabilité": 8306,
      "server": 8307,
      "▁crois": 8308,
      "_stars": 8309,
      "alpha": 8310,
      "▁behav": 8311,
      "_index": 8312,
      "(input())\n": 8313,
      "▁tent": 8314,
      "▁signature": 8315,
      "▁players": 8316,
      "venu": 8317,
      "os.": 8318,
      "▁boy": 8319,
      "▁items": 8320,
      "Acc": 8321,
      "▁late": 8322,
      "▁risques": 8323,
      "▁ém": 8324,
      "▁éd": 8325,
      "filename>": 8326,
      "ousse": 8327,
      "▁directeur": 8328,
      "▁Chin": 8329,
      "▁mine": 8330,
      "olicy": 8331,
      "▁Cent": 8332,
      "▁areas": 8333,
      "▁thems": 8334,
      "urt": 8335,
      "aries": 8336,
      "▁utilisés": 8337,
      "▁extends": 8338,
      "arth": 8339,
      "gh_stars": 8340,
      "gh_stars>": 8341,
      "▁MA": 8342,
      "▁vision": 8343,
      "_e": 8344,
      "▁stress": 8345,
      "▁Bre": 8346,
      "▁dépos": 8347,
      "ailler": 8348,
      "\nms.": 8349,
      "▁conj": 8350,
      "atin": 8351,
      "ри": 8352,
      "▁Ke": 8353,
      "▁Read": 8354,
      "▁souff": 8355,
      "▁protected": 8356,
      "▁a_": 8357,
      "poname>": 8358,
      "▁<reponame>": 8359,
      "_set": 8360,
      "▁prep": 8361,
      "▁tes": 8362,
      "▁intégr": 8363,
      "ilib": 8364,
      "▁places": 8365,
      "▁pros": 8366,
      "▁name:": 8367,
      "▁net": 8368,
      "▁tempor": 8369,
      ".\n\nEn": 8370,
      "▁chap": 8371,
      "M.": 8372,
      "akes": 8373,
      "▁fins": 8374,
      "GL": 8375,
      "ell,": 8376,
      "erts": 8377,
      "▁pratiques": 8378,
      "...)": 8379,
      "_info": 8380,
      "mas": 8381,
      "▁root": 8382,
      "icient": 8383,
      "▁dise": 8384,
      "▁shown": 8385,
      "▁sole": 8386,
      "useum": 8387,
      "ORT": 8388,
      "ity.": 8389,
      "▁unit": 8390,
      "▁Don": 8391,
      "({\n": 8392,
      "has": 8393,
      "▁fight": 8394,
      "▁reported": 8395,
      "e-": 8396,
      "▁\"F": 8397,
      "▁autant": 8398,
      "▁Gen": 8399,
      "apon": 8400,
      "▁voie": 8401,
      "ices.": 8402,
      "▁américain": 8403,
      "_text": 8404,
      "▁defin": 8405,
      "tant": 8406,
      "▁tab": 8407,
      "gen": 8408,
      "èrement": 8409,
      "▁\"v": 8410,
      "▁Bal": 8411,
      "tiver": 8412,
      "▁Plan": 8413,
      "onstr": 8414,
      "▁Luc": 8415,
      ".\nSi": 8416,
      "▁cele": 8417,
      "▁programm": 8418,
      "▁Market": 8419,
      "▁sold": 8420,
      "=self.": 8421,
      "▁hour": 8422,
      "ariat": 8423,
      "unal": 8424,
      "▁l'av": 8425,
      "raine": 8426,
      "\nAct": 8427,
      "hand": 8428,
      "illa": 8429,
      "▁lois": 8430,
      "▁Sol": 8431,
      "▁vivre": 8432,
      "method": 8433,
      "▁print(": 8434,
      "▁diagnos": 8435,
      "▁uses": 8436,
      "▁expéri": 8437,
      "▁[\"": 8438,
      "}/": 8439,
      "▁None,": 8440,
      "▁contrô": 8441,
      "id,": 8442,
      "▁politiques": 8443,
      "▁vrai": 8444,
      "hi": 8445,
      "▁situé": 8446,
      "▁législ": 8447,
      "▁Prov": 8448,
      "▁enfin": 8449,
      "_x": 8450,
      "icol": 8451,
      "▁located": 8452,
      "achat": 8453,
      "▁Ap": 8454,
      "php": 8455,
      "▁saw": 8456,
      "та": 8457,
      "▁false;\n": 8458,
      "▁challeng": 8459,
      "YES": 8460,
      "▁soon": 8461,
      "▁legal": 8462,
      "▁site.": 8463,
      "éral": 8464,
      "▁empty": 8465,
      "▁desc": 8466,
      "ingt": 8467,
      "▁moyenne": 8468,
      "iale": 8469,
      "▁titres": 8470,
      "▁Er": 8471,
      "\nAl": 8472,
      "▁©": 8473,
      "▁immedi": 8474,
      "defined": 8475,
      "▁partenaires": 8476,
      "eci": 8477,
      "▁partage": 8478,
      "▁restric": 8479,
      "ifications": 8480,
      "▁chauff": 8481,
      "▁adap": 8482,
      "▁troisième": 8483,
      "Handler": 8484,
      "WS": 8485,
      "ca": 8486,
      "▁Pré": 8487,
      "▁parfa": 8488,
      "oign": 8489,
      "▁fonctionnalités": 8490,
      "Ext": 8491,
      "▁began": 8492,
      "▁token": 8493,
      "tivités": 8494,
      "▁vont": 8495,
      "▁Eng": 8496,
      "ername": 8497,
      "iture": 8498,
      "érant": 8499,
      "ULT": 8500,
      "▁qui,": 8501,
      "ds": 8502,
      "▁médic": 8503,
      "▁étrang": 8504,
      "_by": 8505,
      "novation": 8506,
      "atoires": 8507,
      "▁parler": 8508,
      ".\n\nD": 8509,
      "▁manifest": 8510,
      "▁practice": 8511,
      "▁template": 8512,
      "▁Research": 8513,
      "known": 8514,
      "▁contempor": 8515,
      "endra": 8516,
      "%%": 8517,
      "▁brou": 8518,
      "bur": 8519,
      "▁groups": 8520,
      "▁coord": 8521,
      "▁transition": 8522,
      "sub": 8523,
      "▁réuss": 8524,
      "▁certific": 8525,
      "rief": 8526,
      "]:\n": 8527,
      "▁→": 8528,
      "roph": 8529,
      "TIF": 8530,
      "azine": 8531,
      "acle": 8532,
      "▁distr": 8533,
      "\n\n\ndef": 8534,
      "\nAd": 8535,
      "▁poste": 8536,
      "totype": 8537,
      "▁setting": 8538,
      "rand": 8539,
      "▁longer": 8540,
      "▁sources": 8541,
      "ole.log": 8542,
      "rick": 8543,
      "▁hit": 8544,
      "button": 8545,
      "ices,": 8546,
      "▁haute": 8547,
      "Check": 8548,
      "\n«": 8549,
      "▁there's": 8550,
      "▁conver": 8551,
      "▁technologies": 8552,
      "tile": 8553,
      "▁automatique": 8554,
      "▁smart": 8555,
      "NA": 8556,
      "▁chem": 8557,
      "};\n\n": 8558,
      "▁Max": 8559,
      "▁coach": 8560,
      "\n\nNote\n\n": 8561,
      "▁relevant": 8562,
      "▁pas,": 8563,
      "teger": 8564,
      "apping": 8565,
      "ès,": 8566,
      "DA": 8567,
      "▁throughout": 8568,
      "\nContact": 8569,
      "root": 8570,
      "▁Non": 8571,
      "▁tiss": 8572,
      "▁pow": 8573,
      "▁forces": 8574,
      "▁{\n\t": 8575,
      "▁passed": 8576,
      "▁dég": 8577,
      "▁null;\n": 8578,
      "▁Québec": 8579,
      "▁Mer": 8580,
      "anged": 8581,
      "ua": 8582,
      "▁Id": 8583,
      "ictor": 8584,
      "▁batt": 8585,
      "rons": 8586,
      "▁Sub": 8587,
      "augh": 8588,
      "long": 8589,
      "▁James": 8590,
      "Column": 8591,
      "encies": 8592,
      "▁famili": 8593,
      "▁d’avoir": 8594,
      "▁supérieur": 8595,
      "/f": 8596,
      "▁latest": 8597,
      "▁manuf": 8598,
      "▁specified": 8599,
      "color": 8600,
      "[:": 8601,
      "ance.": 8602,
      "▁goal": 8603,
      "▁script": 8604,
      "▁rom": 8605,
      "PA": 8606,
      "▁motiv": 8607,
      "▁environnement": 8608,
      "\nDans": 8609,
      "▁reference": 8610,
      "iler": 8611,
      "▁profit": 8612,
      "▁pou": 8613,
      "inner": 8614,
      "iquer": 8615,
      "ic,": 8616,
      "▁bank": 8617,
      "▁\"p": 8618,
      "▁General": 8619,
      "tob": 8620,
      ".length": 8621,
      "quête": 8622,
      "▁:\n\n": 8623,
      "▁Govern": 8624,
      "ilder": 8625,
      "\\t": 8626,
      "▁worked": 8627,
      "raphe": 8628,
      "▁info": 8629,
      "cm": 8630,
      "▁aliné": 8631,
      "▁gauche": 8632,
      "')\n\n": 8633,
      "▁Washing": 8634,
      "Press": 8635,
      "exp": 8636,
      "▁Entre": 8637,
      "equation": 8638,
      "acité": 8639,
      "tique,": 8640,
      "▁year,": 8641,
      "▁ble": 8642,
      "▁l’utilisation": 8643,
      "cs": 8644,
      "▁mauv": 8645,
      "▁confort": 8646,
      "▁allows": 8647,
      "toire": 8648,
      "▁Ser": 8649,
      "▁jardin": 8650,
      "],\n['": 8651,
      "▁qu’une": 8652,
      "div>\n": 8653,
      "▁véhicule": 8654,
      "▁fi": 8655,
      "▁effectu": 8656,
      "oyage": 8657,
      "▁fils": 8658,
      "Equals": 8659,
      "▁SA": 8660,
      "tyle": 8661,
      ".\nRépondre": 8662,
      "▁nuc": 8663,
      "▁statement": 8664,
      "▁(ou": 8665,
      "▁rub": 8666,
      "▁CL": 8667,
      "énergie": 8668,
      "▁Found": 8669,
      "▁Hel": 8670,
      "▁batter": 8671,
      "mathcal": 8672,
      "▁Bien": 8673,
      "\nMerci": 8674,
      "▁exemple,": 8675,
      "men": 8676,
      "▁central": 8677,
      "▁is,": 8678,
      "▁règlement": 8679,
      "▁mm": 8680,
      "images": 8681,
      "Dec": 8682,
      "reed": 8683,
      "▁gal": 8684,
      "▁Press": 8685,
      "▁mél": 8686,
      "-et": 8687,
      "▁qu'en": 8688,
      "▁Sen": 8689,
      "ependant,": 8690,
      "▁reli": 8691,
      "Dis": 8692,
      "▁oppos": 8693,
      "igné": 8694,
      "isez": 8695,
      "Url": 8696,
      "▁pretty": 8697,
      "organisation": 8698,
      "pping": 8699,
      "▁fonctions": 8700,
      "▁hel": 8701,
      "▁Christian": 8702,
      "▁на": 8703,
      "▁speak": 8704,
      "▁(t": 8705,
      "▁poursu": 8706,
      "▁tree": 8707,
      "▁hyp": 8708,
      "▁difficile": 8709,
      "▁lettre": 8710,
      "▁Ainsi": 8711,
      "Input\n\n\n": 8712,
      "▁Mark": 8713,
      "nt": 8714,
      "))\n\n": 8715,
      "echan": 8716,
      "▁liter": 8717,
      "▁commence": 8718,
      "▁Mo": 8719,
      "▁lost": 8720,
      "vice": 8721,
      "esc": 8722,
      "▁\"d": 8723,
      "▁Each": 8724,
      "Attribute": 8725,
      "▁Top": 8726,
      "▁trade": 8727,
      "▁\"f": 8728,
      "▁Department": 8729,
      "Create": 8730,
      "▁knowledge": 8731,
      ".\n\nP": 8732,
      "hood": 8733,
      "▁File": 8734,
      "INT": 8735,
      "();\r\n": 8736,
      "▁database": 8737,
      "▁Jus": 8738,
      "▁said,": 8739,
      "-j": 8740,
      "▁wrong": 8741,
      "▁communes": 8742,
      "▁télév": 8743,
      "▁sujets": 8744,
      "\")\n\n": 8745,
      "▁stre": 8746,
      "strong": 8747,
      "_add": 8748,
      "'),": 8749,
      "riel": 8750,
[...]
